00000000000000000000000000000000000000000000000000000000000000000000000000000000000000000000000000000000000000000000000000000000000001100001111100000000111010100000110101001100000010111001110100001000111100010001000111010001000010001001101100001101001111100000000000000000000000000000000000000000000000000000000000000000000000000000000000000000000000000000000000000000000000000000000000010000000110001111111000011110000000000100111111110110011111001111100110110001111100111101011000001011011001001111110111000111
11111001010100011111000000001011000011000110101000001000101101010000011011000010000001010011100011110111101011000001100110010000111100110101110011111100101001100000100101010001000001110100100000000010111110001111111110101010111111000001101100010000110111000000100101011111000000001011101100001011100010000000100110011011000100101000010011111100000000000000001110111111000101011011111111111100100011010000000100111011111110100110001111111000001011001111111100010000111111010110101000001010100011011111101100110011
00000100101011000000000101000001000001000100101011111111100001100000011110101111111101100100101000000011011100000000000111101011000010011001101100001000101101000000000110010011000001100001101011111111000111110000100111000001111110111011110000001100100111110000011001000110111111111100100000001110100001000000010010011011000011011000111100001001100001111111111100001001000010010011000000000101111001110000100110110100000000011010100100001001101101010000100100000111111111110011110100000010101000110000101010001010
00000000001000100000010010100011000001110110100100001110011000000000001110000001000001111000101000000000110001111111110101011110000000110110100100001001100011010000010100010100000010010100000000000101100010110000001011011111000001001010001011111011111010100001010011101111000000011110011111111111100001110000010000110101111111101111000100000111110001011111101000010010000011110110110000000000111011000000010100010001111111111100100000000100000111010000010101001001111111110010100111111101101000011111110101110101
11111111100101110000000011011110000000101000001000000010110100110001000101011110000001001010011100000010100000011111100010000100000001010011110100001101010001011111101001101001000000111011011100000010100110100000001111000001000001100010100011111010010101000000000100001001000001010011001111110100010100101111111001100110000000101100100100000011000010010000110000111101111111110110010100001001000010110000111110011110000001101011000000010001110110110000100001110101000001011001010000001100010001110000000000111111
00001011011101001111101110010111000010100101000100001110001110000000000100111011000000011100011100001001110011101111111000011111000010111001100100001010000001000000100111110000000010011111110111111001011001111111110000010110111111000111100011111011011001110000001010110100000100000111101100001111011111011111110101000000000000100000000100000001000000100000110100001000000010111100010111111111110010111111111000001110000000010011111000000110100111010000010111100111000000011111011100001100110101100000010001100001
11111101010010000000101010001110000000101000100000001010100101010000101101010001000001010111110000000110010100110000011100011111000000100001101000000010110011000000000110111111000001100000101100000111101010000000110101000000111111101011011100001110010101100000010011110011000000110110011111111001011101100000101110001000111111010001110100001111000011000000011111101010000000001111010000010001011100010000011111010011000000000111110000000000101111110000011110110000000001101110000100001000100101001111101011001000
00000001101101100000010000010110000000101011010100001000000100000000010001000110000010010100001100001110000110000000001000001110000001110011101000000011100010010000100100101100000001010100101000000001000110011111111010100000000000001001101100000011011110000000010011011000000010010000101100001100101001111111101011110100000000001111001000001110111111000000101001011101000001110100000100000110101110010000101010110100000000011001001100001101110001010000010101110010000000011100101011111111110110100000000011100011
00001101111101100000111011100100000100011111001100001101110100000001110011000010000010011011000000001100001111001111101010110101000110011111111100001100110111010000101011111101000010001001001111110110110010010001010100110100111010001000000011111010111110100000110101110101000001110000100100011001111110010000110001111010000000010001101000000100100000110000100111001001000101110001011100000011110011110000010010110011111101110100110011111110000101010001011111110100111110110101100100001001001010100000101011011001
00001110011100111111010100100100000011010001111100010011111010001111110100101010111111110001010000010011110111000000101100111110111111010111111000000000000101100000000100111101000110101011000011111111100000110001010011101110000100000100001011111000000100110001000100101100000010001110011000001010100001110000101100110101000000010110010100010111011000110001010110010100000010110000000000001001001111010000001001111010111111001001001000001011000010001110111000010010111110000001000100001010111100110000000001001100
00001111111010110000010010000101111111011011001100000110011111100000110011111000000110010100100100001101101111110001000100001101111111011000000100000111000100010000101101001101000011010011000000000000001011010000110101011110111111000000110100000000001001000001000101100101111011101000010000100101000110000000111000001101000001101000011000000010011000110001100011110100000111010010101000000011110100110000010111011010000101010111001000001010110110000000011001011010000010010111101000000110000000100000001110111001
00000010011001010001011000011010000001011000100000001111101000000000001101101010111111000011001100001001101100110000001101001110000001111110001100001111000010010001011100011110111101100010010000001000110111110001000110101001000000110000111000000100110100110001100111010100000001010101000000001011001111110000100111000010000011011000000000001011011111100000100001100101000001101111010000010100011100100001010101010010000100100011100000010100010101000001000111111111000111011110101100001010011110110000010001011111
00010001001100110000100011011110000011010001010000010000001000100000000001111111000000100000010100001111000110110000011110000000000011010001011000001101111010000000101111010110000110000001010100001010000110100001010001110110000100111011000000000011100111110001110110110000000101110000011000010110101100110000001001100011000010101001111111111110001111010000100101010111000001111001011100001000010000100001000110011011000011011010111000000101101101010001011101110001000010010001111100000110110111000000100011001000
11111111111011110000011000011100000011000011010000011100010110000001000010100100000000001000111100000011011010110000110001011011111111110001111000010100101000010000101100010110000011110101010100000100111001010000110100011001000010101111110000001111100010010000001011001100000011000101111100001011011101101111101010011000000010010010011000001101010110100000100011111000000010000100100000001111010010110001011000011011000100001011101111111011011010110001000011100101000000110110100000010001000010101111010010110010
00001110110000100000111110011110000010100010111000001001011110101111010110000011000010011010000000001010100111000000001110001110000001001011011100010001101110110001011100011001000001000001001000011001101101110001000110111000000001110010101100001111000110010000110101101111000010000110011000010010011011100000011001001111111111000000110100001010111011010000000011100001000111010010110000001011110101100000111010001010000011111000100000001100111101000000100111110001000000001100000011110011010101010001000110001101
00000110111100010000111101000111000011100101110100010101110011010000100010100111000010100011011100001111010011010001101111010110000110010101110100001001100001010001101111011001000000001010011000010001010010010001010001100101111111001000110100001011011001100000001010100101000101100010001100000111111110000000101001010100000011110100100100010001111111010001000011011110111111010110101000001111010010010000010111000011111110111000100100001100101110000000100010000010111111110110000100001001010010000000101111111101
00000111111101110000101110010011000100101111011100001001001010110001100001000101000000011110110011111111001101000000111100010101000011111111010000000100000111110000011100011100000100001100101011111001100101101111110100100101111110011001110000011000010001100000101011100011000011111110111100010011011101010000100110101100000001110000001100000011000011011111110110100110000100101011111100001111011001110000110011100000000100111001111100000101011011010000101111000110000000110111111111111111011000011111110101000111
00001010100000101111010101111111000010010101101100001000110110100000001101011010000011111010001000000110010010110000000110011111000101100001100000001101011100010000011110011100000001100001110000001001111011010000100110001000000011100111101000010010001100010000001111000001000011111100111000010100001001110000101001101011000011110010010000001101001111110000000000101111000101101001100100010010001101100000010001001011111101111010110100000010101100100000110101010011000010110100011100011011100100010000101010010110
00001111000110000000011100100000111111111000111000000101010111100000100000110011000010101010001100001101111001110000111000001010000100111111101000001011111100000000111100101010000011111011011000001101110111100000010110011000000100100100000100001100111100100000101011000111000100001110100100001101111011000000100011111000000100100111001011111111111101110000100111010101001000001000100000001110101110100000101010001111000011110101000100010011100000111111000010111110000011010101011000000111011000100000001101000010
00001010001010110001101010101100000001011011100000010000000000100000110110100101000000100101011100001100101001000000001111001110000100001110010100000011101001000001001101110000000111000100001000010000100001000000100101011100000000010011111111111011000010100000110111001010000010111110100100010010100001100001001011011101000100111100000000001010110001100000001100110000000010110100111000001011111111110000110011101110000010101100100000001010010110010000001100111111111011010010000100001001000110110000101100111111
11111011110010101111110011110110000100100011101100001000000011110000001011100101111101111101111100000110100110010001000101101111000000101010011111110110001010010000110111100101000010100101101000001010010000000001000010101111000100011101001000001010101111110000110101000101000011101110101000001100110100101111111101101011000010000110000100000101100011100000011111000110000000101010010000000111101110000001001101011011111111010110011100001110110110010000101110011110000001100011111000000011000010110000010100010111
00010010110111110001000011111001000010111011001100010110011001011111111011010100000011000011100100001101100111010000011001001001000001000101111100010101111110100000010111111000000101001000001000010011011000010001001000111101000110010100001000000101001110101111111011000101000011010000100000001010111100100000101011011110000100111110111100001111101001010001011010110101000010001101010000001100110010000000001011000010000011011111101100001011001011100000100001100110000010001010011100000111011000100000100000100111
00001000100000011111010000110001000100010100011100010100100010000001101100101010000010010100111100001101100100100000100111011011000001101110111100001001110001000000110000010011000100110101110100000011101000110001000110110110111110011011000100001010110101100000101000000100000100110000110100010000110111100000110001000110000011010110100100010000011000110001011001111111000011110100111100000111110011000000010101110001111111011010101100001001000000100000100111000010000100001111010100000011110001110000101001100110
00000000101001010000101110100010000010011100101100000000100011100000111101100001000010001110110100001000110100100000000100011000111110011001001000010001100001000000101000011000000001011010101000001111100100000000100001011001000000111100101000000111111001100001011001111110000100100111010000010111011000010001101011100010000010001001100000010000000101000000011111101001000100110100010000000110011111100001010101010000111110110110011000000100011111000000110110000100111111010101010000000111111110010000100110011010
11111011000111110000010000101010000010110101001111110010101010000001011110110011111001111101010000001010001110010001011101111111000011000101010100000100110101000001011001100000000001011100000000001001110010010001001100110111000100111000101111110110011000010001001101001000000010010100110000000010001111010000111011110110000111001001011100001100001010011111011001101001000000011110110000001011110010000000110001100100000011111101101000001011000100010000010100111110000100001010101011111101001110101111111011100011
00000110111101010001010001011010000100010010111100001101010010000001011100111000000011010100001000001101110001001111110010101110000010011101010011111100110000110000011010011111000001110110111111110111011110010000100101000100000011110110010100000101100010010000100010100010000010101001010100000011000111010000100000100100000100101000011000001111111111011111111100110101000100010010011100000111101011001111010001101111111110110110101100010001110111010000110011111101000001101101101100010010111000110001010010011110
00000001101001100000111101110001111100001101001111111100001010110000011010010000111111000001110100001111100110110000011111111011000011010110001100001111011010110000101110100100000001111000111100010000110010000000010000000110000001001001001100000000001011000000111001000000000000110000000000000110111000100001101010000011000010111011101000001101111110000001001111001111000011110101001000010011000000110000110011010110000100110011100000001100001110110000100001010000000010110101011100010101100000100001100001011110
00001001001011110000010011001001111110111101011000011101100001000001100000001010000000010011000000000110111100000000010010010100000110100110000000010000010110100001001010110011000010101111000100001001000001100000011100111001000011101111000000000111000010000000101010000111000110110111001100000001011010000001001001100111000010010111010000001101010101010000111010100001000011111010000000001110001001110000100011111100000010000001111100000110000101101111011101101100000101000100110111110110011010011111010100101001
00001000110010000000100110011101000010101101011100000110101010101111110110001001000011000001101100000111000100010001000001111110000001000010111111111100010001000000011001101110111111001000010100001100010110011111110111101010000100011001011111110110000001010000011111011110000011111111100100000001100001110000101110101011000010001111100000001101110101010000010101000001000011101100101000010011111001010000010010101101111111100000011000010011101101010001001001001011000100100101111000001000010101110000110101110001
00001110010101000000011010010110000100001011000000011011010010110000010111010111111111001010100000000010111100100000110111110111000001011000101000000011100000000000000000110001000100000110110000011100111101110000111001110100000010111100001000000100101010000000011000001011000101001100000100010100100000100000011110101110000100111010110111111101011111100001000011010111000010101010011100000110010100100000111011100000000011100101010100001111011100010001011101000111000000111111001000010000010010100000100101111011
00000111010111100001001011111011000010111010101100010101110110010000100111010111111111011010101000010101011001110000110010100010000010111011111000001111001100010000001110110011000011000000011100000011100000000000111010000010000100001011011100000101110111001111010110011100000000011011010100000000011010011111100001010010000011001100011111111111101100001111100010011001000010001011100000001100011010010000111110010110000010111001100100001000000000000000101011011101000000110111000100000011001001110000111011011010
00000100011100100001000001110000000000110011100000001010001001010000011100101110000101010111110000010101101100000000101010111110000100100000100100011010100101000001000000101101000100000111001011110101010010000001001001001001000011011010101111111000010100000000111000111110000010111010110100001101010110100001011111110001111111000111100100000011011100100000111001100011000001001110001100010000010001100000001010111101000010011011101000000110000101000001001111001100000000110000110000001101110111110000101010001010
11110011110011010001001111000110111011111110010000000110011101000000100111011100000001110011011000010010000010110001100010011100000000011001110100000100101101000000010100100100000011010000001100000001100000101111111000000000000100111110001100001000110001011111010100111000000100011100100111111110011111100000000100111011000001100101101100001001110000010000101100000101000010101010011000001001001010010000000111111110111111111001010100001011011000010000110101011101000011001101001111101010001001100000111111111011
00000101111011000000100110111110111111001111010100000001010011101111001111010100111111000111001011111100001011100000100110001001000001010111111100010010001101011111111110101110000011101000110100000100001110000000110111101111000000000001000000010111111100011111111011000000000001011100110100000001100010101111101010010101000001001100101100001000001010101111010001101111000100000110110111110110100110010001101110010101000000001110010100000111000010011111111110011100000101110110000100001010101111100001000010011100
11111111011010010001001111110100111110101010010100010000110110000001000011100011000010010111110100001100010000010000010001110010000001011101000011111101110100010000001100011101000001111011010100001010110111000000001001111100000100000011010100010011111010001111011100111110111011111100010011111110111001000001011011011001111111010110010000001000100111101111010111000011111111011000001100000101100100101111110100000111000011101001100000000011101000110000001100110100000100101010110111111111010000111111100100000100
11110011011001000000000111010110000010100000110100010010100000001111110100011101000110001001010011101111111101100000011001011011000101110100110100001011011011100000001011001110000011010000010000000110011000100000001000011010000101100101101000000111000111000000001110110101111111011110110100001100110111100000100010011100111101101111001100000101110011011111011111000111000110001100100000001100110110111110111111011100111110100000000100000111000111101111011001000010000100000110011100000010110000100000100000001010
00000101100000010000000110100110000001100110001100001000001000000000011111111100000010101000100000010101000010100000000101000110000101100111011011110111010111000000101101011010000000110111100000001000001110110000110011000100000010110000110100000101000111110000010100010001111110100010110100000011001011101111101001001011111100001111111111111100110001000001001100000101000110110011010000010000110011011111100110110101000100111010000000001001001001101111000111001010000000100000011011111010011110011110010100101111
11111110011011101111111100010011000010101110001100000100010011110000001110100000000100111101011100000110110001000000110010111100000011101111010000000110111011110000111101011001000101001101011111111001110010110000110000101001000001100001000011111010100101101111111111101011111111010000101000000101110010100000010100011011000100111001000111100100100110100001100010101111000011001100100100001010101100110001000011000000111111101110111111111000101010101110101000000010000101000101111100000000000000000001001000111100
00010001100110010000000011101101000010000101010100000010000001111111101001111100111011000110101011110100100111111111011110011010000010111111001000000011000110101111001101111110000000111100100100001101011011000000111001101100000001001101001100001010110101000000001011000010000100011101011000010111110110110000100011000010111101011010011111111110011101101111101001101100111110010000011000000100010001011111010111101011111110101010110011111000111110110000011100010010000001111010010100000110101010010000000110011000
11111011101000001110011110110101111100110010000100001100011101011111111101011111000010010001010100000111101010110000000111001110000000111101010000001001000110000000101001111011000000100101110111110111100010010000011000110110000000000001001100001010000011000000001110011101000100000110010000000111000101100001010011101010000001110010001100000010101000000001001011101111111110010111001100001001110100111111110110110111000010101010011000010101000111010000001111111010111100111011101011111100010100100000111110011000
00011010100100101110111000100010000111000000001000000111010100100001010011001110111111110110010100000111010011010000110010100101000010110101100011111010010100000001111010001111000000010100101000010010000010000000011001100110000100100101000000000111111001100000000101011001000001111001111000000000101100111111101000101111000000111111110000000100010001010000110100110101111111001111001100010001110100101111011111110101000011101011110100010010000011100000011010111101000001000101111000000111111000011111010110110101
00000011011100110000101000001111000110101101110000001111011001100000000000011011111111111110110011111011000111010000101110011100000010111100010000001001111000101111101000100111000000101100001100000101010110010000110111001010000001111001000000001000110010110000101001011101000010100111100000000110001100010000001011100101000001111001011111110011111000101110101110010011000011011100111000000011011101110000111110110100000100010000010011111110001111101111111010000010000010001001110100001000011101010000001111000101
00001001000010010000101010101111000101010010100111110011000101100000011001110011111100101011101100010111000110111111000100011101000011001001000111111110010101010000100100111111000000010101101000001110011101101111111010001100111110100010000100001001100101000000001101111100111111101111101111111011011111000000101100100001000001101010110011111101100000110000100000000011000000001101101011111110111010101111010100110001000010100101101100010010110001101111010100010000000001000110000111111100101100000000111110100101
00001011100100000000000011000001000000011010111000001000001111110000110001101101000110100111100100010011000101110000110111100111111101100111001100010001011111010000001010001000000010011000010011110111011000000000011101010101000010001111011000011110001111100000100001101000000001011111110000001110110110011111001001000111000010010010001111111111100010110000000100110101000110011010111100001000011011000000011100111010111110000001111000001010110110010000100000010011000001001111000000001000101110101111101101101100
00001011010111010000010011001000000000101111111100001011011110000000110110100110000001101010010100001111000011010000100111111111111010100010000100001011011111001111001011010001000001010001100011101001111010011111010000111000000011110000111000001010001000110001000110100001000100100110110000001100011010010001001100111010000011110000101000001010011111111111010100101110000001001011111011111111010110110000111010010000000100111110100000000111100001100000010111001101000011110100001111110100101101001111111101111100
00001000010000110000000101000010000001111111010111111000110110110000010001000110000100000011000100001001101010100000101001001000000000111100110100001101100000100000100100011100000010011011100100000000001100011111100110111101000110000111000000001001110111101111010011001110000010110111111111111101111010100000110100111110111111011111001100010001000010000001010101111010000010100100101000000010000111110000101011110001000011000001101100000100000010010000011010000101000011011111000100001110001000110000001001111000
00010000000010111111110010110100000110110000011100011111010001111111111010101010000101101110011100010111100000110001011001011010000001111001110000001011000010010000011100011101000011001010101100010010110000110001011100101010000001010100001011111111111100001111011111110010111110010100000100000010010100010001000000000000000100001010110111110010110110100000101011000100000001110111110000000001111101111111110110000010000100101010101100001110010100110000101010101111111101111100010100001011011100000001000011101101
00000110000110001111100101000111000100110100010000001100001000101111011100001111111100011010100011111100001001110000101000000011111110001000100111111000111000110000001000100000111111010101111000000100010110110000110010000111000011011010010011110111110100111111111010011101000001011100101100010000100001010000000001001010000011101110100111111110010000010000100001001001111111101110110111110111000110100001110010001011000000010101110000010010001101011110110010000011000101101000100100000001010011100000110001101001
00001101100111110000000111101001000011010110001100000111111011001111000110110011000001100110010000010010101101011111111001011010000000111110011000000111000110110000111100100010000100010001011000001001000010000000100101100111111111101101011000010000100001000000010010100000111110000101101100001110111011110000110101101110000101000101111100001010010011101111110011011101000000000111011000011101010011010000011011100010000001000110110000000110010001100000010101100001000000100111111111111110001101101111110011010010
00001010110011010000111001000111000001110111111011110100001011010000110100111000111101110110000000001000011110100000011010000111000011001110100100000011100110101111011100011100000001010000011000000000011110110001010010011000000001010010000100001000010000101111101100000000000000101000110100010010100100011111111101001100000000010010100000001001110010001111101100001100000010011111010100000011100000110000111000001010000011101101111100010001111100110000000001100000000000011101010000000001011010110000101101001010
00001000011010100000101000110100111110111000110111110111100001000000110100110011000000011100011011110110100111000000111000111100111101011001001100000010011101110000110101011101000011101010010100001110010100100000101100100110000011011110100000010100010110101111110110101010111111011011100000001101110001001111011000100010111101010010001100000110101111011111110111111011111111101011100100011010001010000001010101001010000100000001110000010011110010110000010001100100111011110110001011111110111101111111010101011001
11111000110001100000111101110111111111111111001100001000111001010000010011110001111101001011100111111001011100000001010110100011111101111101011100001010011000000001010110000101000000010010010000001100100001000000011110000100111101001000100100000100100100000000010101000111000100010100110000001000111001011111011011010111111111111100110011110010001010111111110110011011111111101011100100000111000001000001000011010111111110100010101100000110111110001111111010110101000011101000010100000111101011111111110101101000
11101101111111010000000111001010000101011000000000000111110000010000011100000100000001111110000000000100001000110000001110011000000001100100010000010011011001101111111011001011000001110110101000000101010100110001000101011100111111111111000000001111101010110000011100101110111100100011101000001010100111100000010110001010111101101001111011111011101101001111100110111001000100011100101000001101011110010001000111000110000001111000000100010100110111000001000011011111000001010101000011111001010111110000101000111110
00001101100100110001010000110011000001001111010011111010001001100000011100011001111111110101100100001101000001110000001111110101000100110101011100001101010110101110110000011100000011011100100100011111111101011111111011010001000010110100101000000000111101001111110100001010000000110100010111111000110001100000011010110010111110110010110000000001000100101111101001101010000011100011010111110110111010000000110000111011111010110101001100000010000011100001001111100101111101111110110100011011111001011111000011001001
11111110111111101111111010011010000000111111110000001100100101100000000010011000111100110100010100000111111011000001101111010101111110011111010111111101100010011111001000110011000100100001001000000100100100011101101000001011000001101111110011111110110010000000100101011111000010011001001011101011100010000000101000110100000010010110110100000100100010101111001010001010000000011100011011101111000011110000100000110010000011100110010100000001000000010000101010010001000011001111100000000001100110000000011100100111
00011011100011010000110010101100000010111101011000000101011010000001111001011110000001101011011100000001001011010001001011010111000010100110010000000011000011110000111101011110111110101101011100000110110000011111111110010101111110000110110011100011001010111111001101001101000001000001111000000011111100110001000111111101000101010010110000000110110101100000110000110110000100000100010000000110001100101111110111111111000000110010001000010001110000001111111000011001000011011100000100001011011001011111100110111101
11110010010011101111110100001010000100010100011100010111111100111111101110111111000010111010000111111100101000010000100011011110111111110111111000000111001101110001010010010110000000110011100000010001111010101111000011011110000001100100000100000001011000110001011011001000111110101111011100010001010010001111111101010100000001101101111000011001110111011111000111000100111110111111110000011011011001110000110101000011000010001110001000001100010100101111011111011010000101100110111100000111111110010000001000010110
00001010100110000000000010110101111111101100110100000100000110010000011000000110111011110111111000010001110000101111110110001011111111010111001000001000010000000000010101010010000100011101011100000000100000100001011010010110111111010111011000001001000010100000111111000000000001101111010000000010010011010000001111101100000111010001011111111100100100100001001011100011000001111000000000010000111111000000110010001000111111010010101100010001101011000000100001010011000011110110001100010000111011101111100110101011
00010001010111100000010111101010111110110010100111111100110001000000110010101100111110010011101100001111101000100000001111000101111111010011110000011110001000000001110110100100000110100111110111110110011110001111001100110001000001010101101011101110010011100000111111001101111111101110010011111100001010110000000101000010111101101001011100000011010110100001001010110010111111101100101000000000011100110000110000110010000010011101011100010110101011000000010101011001111111110101110100001110010100111110111010110101
00000101000110100000010111000110000100000100100011111111010011110001010101110111000011000110100111111011001111001111011111110010111111100000010000011010011110011111001011110101111011111111000011111111111010100000100000000001111110001111101000010011100111100001010010000000000101110111010100001011111010100000100001010111000101010001001100001101100010111111100000110000111111101001000100001010010101100000101001101101111111011001110000001010101101011111110111001100000000110101100000001100101111000000110011001011
00011000111101101111001100010100000011011101101011111111010100010000111000111100111100111100111100000101001110110001110000000111110110101100110011110101110111100000101010110000111111100110011000010001111100000001000101011100111110001111010100000000000001010000000001011000000001000111000000000100111001000000000101011001111111000000010000001001000100100000100000000011111111001001010011110001101001010001000000011001000011011100110011111100011011100000101101101010111110110100110000001100010010010000011111101100
00000011100110111110111101010001111111110110011100011010111010110000100111001100000011001110100011111100111111110001001011100010111111111011110000010111010010000000110010100000111101111001001000011111001001100001000101100101000001000100010100001010110111101110110010010011000000111010100111111001110110111101111000001100000010000011111111111010111111000001000100000111111111101110010100011011011000100000001110000011000010001010110100000010000111010000011001110010000001011010010100001001100110110000110101010111
11111011111101101111010010001010000000111101011000000110100111101111100110111010111110100101110000001000000000110000000101011001000101100000100011110111101111100000100111101110111011011111011011111111001000110000011110110111000011001011010011111100001000101111100111100001000101110011100000011010101011010000101100000101111010100111100111111101001100010000101011001101111111101101010111110011110110110000000111101010111110001011011000010011010001110001010010110010111110100111100111111111101011010001000000011000
11111110110100001111111001010010111011111011011100010001010010000000111101100011000010100100111100001110000000011111100110000110000001110110111000000111011100010000110111111111000100101100000100000100100110010000000000010001111111010001101000000111110000011111111011111110000100001010000000000001110100000000111110011101111111000010110100000011110000001111101100110101111101010111110000001110111110100000100001001010000000111110101100000110110010110000011101110010000011010111101100000101101010010000001011110101
00000001011101000001010100010011111100110011101100001100011110100000110001010000000001111100111000001000000100110000001001010111000010101010100000001001001001111111111000000010000001011010101000001001010000111111000011010110000000110011100111111101110111110000010100100001000100010101011100000111010011010000001001001010000000101011110011110000001011100000101100100011000000000000111000000001000011010000010000100111000001011001000100000110100010000001110000000100111011010010000011111111001000110000101001111100
00001001101011011111110110100011111111110001110111111000001000111111010100101001111101010110000100001001010110110000010100111111111100111011011011111001100000100000011111010110000010101000011111111011100000001111100111110010111111100111010100001100111000100000001011000001000100000110001100000010010000110000100000011100000010011010011100000111001001000000100000001110000100100110011011111110000000010000011000000010000010000111011100001111011001011111110101110001000010111000011111111001110110110000101001011101
00001111001111111111111101110011111111101000010100000110011100000001110011101001000000011011101011111001001111100000000010011110000010011011100000000000011000100000100101111011111111010100101100001011001000100001111010000000111011001011110100010000111000001111101001110110000001100011101011111100101011101111100110000001000000101100101100001010101110110000011001000001111100110100011000000011100110100000010110001001000000100010000111110101101110110000011010001010000010101110000000001111011111110000101100010010
00001100101010111111110111101100000101010111000100001000010011110000111110010101000010110111110100001000101110011111110010010000111111111001001111111100011101001111101101110001000001011110011100010000101111010000101110000110000001001011110100000010111000110000011101001100111101100001000100001100111100101111101000100011000010111100001100000001011100101111011100011011000001110011111100000001110101001111101111011000111111001000111100001010100111100000001101110011000000100011000000000111100101000000110110010100
11111110111101100000011101011101111110111101011011111010000000100000000001110100000010010000011000010001110001100000010011000010000100101000101100001001111101100000011100000100000100000100001111111110011111100000111001010100111111011001101000000010011010001111100111111100111101100110010011111000110010001111110111101111000010011100011100000010000100110000001100001101111110001111000100000010010010111110101100100011000000001101000011110001100001001111110010101111000001010001101100000111101000000000001111111011
00001101111111010000000001100101111111101101001111111010001111011111111000011101000000100110000100001111000111000001010111011011000001000000110100000011101001101111110111110110000011000100100100000010101011101111101010001000000001101100001011111010011011111111101111111010111110001110111011111111001111100000100111000101000001100000110011111111000001010000101111111110000010000010010111111110001101110001001011100101000000101101000000001101011000000000000100110110000000111010110100000000100110110000011100011110
11110011110101101111111011011101000000001000100000000010010000011111010111001010000000110000011100000111010100100000100110011000111110010000110000000010110010101111111011001001000001111111001100000100010000100001000101101000111110010011111000001110001111101111100100111001111110111110011100000110101100110000100111010100000010000110100100000101111111001111011110111010000000111111110100001001110101000000001000111100000000111111110111111011100010000000010110010000000001000001001011111101101011000000011100110111
11111111001100001111100110110101111111100100011011111111110001000000011100001111111001111101000111111010100110111110111001000001000000111101101000001001001011010000011110101101000000110100010000000100111111100001001011110101000001101010110011111000111010010000101100111101000011100100001100010010011111101111010010100011000001100001011011111101110100100000000100000001000011000110111011111101011011100000100011111011000010001011010000000110001111000000010100010011111111001110010100001010100011001111001010011000
00001100010110100000011010100010000010011110010000001000110000010000010111001000111111110001010100000111010000000000011100000110000010000010000100000001000011010000011000110110000001011011000011111001110110000000110010000001000000011001001000000101000101101111101110000111000001000101111100001001011110000000001111101110111111111000101100000001001100010001000101010011000000100111010100001011111101100000000111000011000000010101101000000110001101000000100001111000000001001010001100001011110000110000001111101100
11111111001011100000000100101101000010001111011011111111011010101111100100101000111111110001100000000110110101111111110011000100000010010100001100000011001011110000001111111010111111001110110100000111001100000000010110110010111111101010100000000100110100010000100100010011111111001001000100001000011110000000011001010101000000010110101100000011000011101111110010001101111111110110011100000111101111100000101111111100000010000100011100000110001110000000011010000111000010000100101011111111101110100000001011000000
00000110101011110000101101000001000010010101101100000100100110001111101001010001111111010101010100001001111100110000010011101010000010011001110000000110011100000000011100100110000000100111000000000001100101000000001010010101000001110101010000000001001010001111111010010001000001011101001000000011100001010000010101100000000000100110101000000101010111100000010001111000000001001010101100000101100010010000110101010101111111001011111100000101110111001111110000000100000000101011101100000010100110010000110110111000
00000010000010111111111110111110000000101111001000000001111010001111111100100110000010011011110000000110010100110000011001101001000001100111111111111000010110101111011010000110000010010001001000000100100110100000100001110010000001111000000000010000010010010000000001010011000000101010110111111101001110000000100000000011000000110011110111111110001010111111111110010011000001011101010100000111010110110000001110111001000001101101101100001100100110011111111101011110000001101010001000000000100101001111111010000101
11111111110011110000100011100111000001000110110000000100101101001111111101101011000001111010011000000101100100000000101011000010000010011010010000000110010000111111110111001110000001110101110000000010011001011111111111001010000000100111011100000011001001111111110011110111000000110000111011111110011100101111111101100010111101111010000100001000000100110000001000101110111110100110111000000000010010100000001000001111111110011111001100001011000111001111111010111011111111010010101100000011100011000000010101111010
00000100011100100000110110000001000000110111011000001011111111010000011101010111000001011000100111110110010111010000000100011010000011001000011000000001001001000000100111111010000000010101010100000000111100010000111111011111111111000110110100001010111001100000001000010110000011111001010100000000110001111111110110101110000000001101100000001001101110011111110001011101000001100110111000001000010011000000110000010001111111101101000100000100100010001111111000011110000001010010100000000110101100110000000011011000
00000111011010010000010011011000000011000011110111111110011110100000101001101001000001001100011011111110000110110000101110100011000000010100110000000111000111101111110110110011000001100010100100000111000100010000100101111010000001111111001100000111110110111111101111111101000010010011011000001001111100000000011100000010000010010011000000000001110001100000001010011010111111010000010100000101111101000000011100111011000011101001111000000100011101110000010000101011000001101000111111111100010110110000011010110100
11111110010011100000000110101110000001110001110000000100101011010000100100001111000000000100111100000000001010100000010111010100000000111110001000000111011100110000000100111110000001000110100100000011111000010000100100011000000011010010101111111110001000110000100001110001111101110110100000001011111110111111111111111100000001010000011000000101111001000000000000000000000000001011000100000010001100011111100111110001000001110111011100000110011111110000010001011010000010001110100100000000010001000000110001010100
00000011100011100000010001001101000000000111011000000111101101100000101010111110000010110011010100000010001101001111111101111000111111111000001100000100000000001111110101100110111110100010111100000011010001001111110100000001111110110100010011111110111010101111111101001000111111111000110100000010111100111111111101001001000001011000111100000011000001010000001101001110000001001011010100001100111010010000100110011100000010000010000000000001001010101111111011011010000011101001111100000101110010110000010010001000
00000111000101101111001110011010000001101000001000001011000101001111110100000100111111001000110011111101100011000000100110001010111111100111101100001010111110011111111100000011000001101001111100000110100100110000011110000100111110010111101100001001001011001111111100001011000000001101101100001101001100000000100010011101000000001111011111111101111101110000010110001000000001110000000100000100111011110000011011100001111111110101110100000101110001101111110001111110000000100001001111111111100011010000100101001100
00000011011111110000100110011100000010010000110000000000101011100000110000011100111111100000000111111111010101000000010010000101111111001101011000000110110010010000000110101001000001010001111100000101011100001111111100111100000000101010011100000111101010110000010110001111000001110110100100000100100111010000001001100011111111101001110000000011100011110000000111111010111110110111101111111101111111101111101100010010000010000000101111111110001000100000100011001111111111011110101100000101100001011111110101100000
00001010111010010000001001111001000010110100101000001101001010001111111000110101000010111000011000000001110000011111101000010100000000000110110011111111100110001111110110001110111110110011110100000101011011011111101000101101000001100001010111111011000000001111111100000101111111001110000100000001000010001111110101110111000001001000001100001101100101100000110000011010000001110011110111111101101110010000010110000010000010011010011000000100001110110000100000010001000000101101010111111111001001110000001000110001
00000011001001011111100000011011111111111001111000000111110110110000011011011011000010000010011000000101001011110000010100101010000011100100111000001001110001110000100101100101000010011100000000000001010011110000100000011010000010001010101100000110111011010000011000000001000000110010110000000101111010010000100011001001000001110101110100001101001000000000001010101000000010100100110100000110000110111111111001001110000010110111110100000100100100100000011100010100000000101000000000001111010110110000001110100101
11111110010110110000011001000001000000000001001000000010001010111111110101100101000000001110010100000100101101100000101100011010000001111111011000000111000011010000010111011100000010100100111000000010010001111111111111001111000001010101111000000000010100100000101111001100000001100101001000000111001100000000100011010100000000101101000000000001111010000000001011001011000000100001101000000001100110000000010000010010000000001000011011111110011001010000101101001100111111100001010111111111010100110000001111001111
00001000010100100000000011101010000001011011001000000111100101100000100101110111000000110011001100000001111000100000011010100010000001000010000000000000010000000000100100110110000001001011011111111110011011001111100100000111111111000111011011111011011010000000011110010110000000101110011100000000100111100000010011001101000000010000010000000000111000011111111010110101000010000101110100000110001000111111111010110000000010000011100000000000111100110000100001001011111111000111100000000111000010100000010011111000
11111110111001110000111101101010000010111100110100001110101010110000001001101110111111001111010011111000010001100000011011010000000001110110010000000110101111001111111011111101111110110101110100000001101001000000111001110101111111111110110100001001111001110000001100011111000001011010001011111100100100100000100001010011000000010000110000001001110110000000001000100100000000111010110000000111010000100000010011010010000001110011001000001001101011000000010011010110000001100001101111111100111110000000000101110100
11111111111000111111111111100001111111110101011111111111100111011111111110011000111111111000000011111111011001101111111111111010000000000000110111111111010100111111111110011101111111110110010011111111010110011111111110101100111111111101011111111111111100001111111111111110000000000001011111111111101110101111111101111001111111111100011111111111011100001111110110011110111111111111111000000000000011011111111101101000111111110100100011111111011111001111111101001111111111010111110100000000000000111111111111111111
00000000000000000000000000000000000000000000000000000000000000000000000000000000000000000000000000000000000000000000000000000000000000000000000000000000000000000000000000000000111111111000110011111111101000001111111110100101111111111011001011111111100010010000000000000000000000000000000000000000000000000000000000000000000000000000000000000000000000000000000000000000000000000000000000000000000000000000000000000000000000000000000011111111110001011111111110001110111111111011001011111111100011011111110101100110
00000000000000000000000000000000000000000000000000000000000000000000000000000000000000000000000000000000000000000000000000000000000000000000000000000000000000000000000000000000000000000000000000000000000000000000000000000000000000000000000000000000000000000000000000000000000000000000000000000000000000000000000000000000000000000000000000000000000000000000000000000000000000000000000000000000000000000000000000000000000000000000000000000000000000000000000000000000000000000000000000000000000000000000000000000000
00000000000000000000000000000000000000000000000000000000000000000000000000000000000000000000000000000000000000000000000000000000000000000000000000000000000000000000000000000000000000000000000000000000000000000000000000000000000000000000000000000000000000000000000000000000000000000000000000000000000000000000000000000000000000000000000000000000000000000000000000000000000000000000000000000000000000000000000000000000000000000000000000000000000000000000000000000000000000000000000000000000000000000000000000000000
00000000000000000000000000000000000000000000000000000000000000000000000000000000000000000000000000000000000000000000000000000000000000000000000000000000000000000000000000000000000000000000000000000000000000000000000000000000000000000000000000000000000000000000000000000000000000000000000000000000000000000000000000000000000000000000000000000000000000000000000000000000000000000000000000000000000000000000000000000000000000000000000000000000000000000000000000000000000000000000000000000000000000000000000000000000
00000000000000000000000000000000000000000000000000000000000000000000000000000000000000000000000000000000000000000000000000000000000000000000000000000000000000000000000000000000000000000000000000000000000000000000000000000000000000000000000000000000000000000000000000000000000000000000000000000000000000000000000000000000000000000000000000000000000000000000000000000000000000000000000000000000000000000000000000000000000000000000000000000000000000000000000000000000000000000000000000000000000000000000000000000000
00000000000000000000000000000000000000000000000000000000000000000000000000000000000000000000000000000000000000000000000000000000000000000000000000000000000000000000000000000000000000000000000000000000000000000000000000000000000000000000000000000000000000000000000000000000000000000000000000000000000000000000000000000000000000000000000000000000000000000000000000000000000000000000000000000000000000000000000000000000000000000000000000000000000000000000000000000000000000000000000000000000000000000000000000000000
00000000000000000000000000000000000000000000000000000000000000000000000000000000000000000000000000000000000000000000000000000000000000000000000000000000000000000000000000000000000000000000000000000000000000000000000000000000000000000000000000000000000000000000000000000000000000000000000000000000000000000000000000000000000000000000000000000000000000000000000000000000000000000000000000000000000000000000000000000000000000000000000000000000000000000000000000000000000000000000000000000000000000000000000000000000
11111110001011001111110101011100111110111111101100000000100011001111100011011111111111010110011111111111000010101111110001000001000000100111111000000000010000010000000001010000000000100011110011111110111101101111111001000010000000001001010100000001111110010000011000100101111110000111000011111111110111010000000000111010000000000011101000000010000010000000000000110100000010010110101111111101111000111111110011110111111111010001101000000111010001000000001010101001111111100011000000000000110001111111110011110010
00000000111110111111101110100011111111110111000000000011100100000000000111110000000001110101011000000011001101010000000100010101000001010011001100000001101110101111111000111101111111010010010011111100010000000000001000111111111111000110000100000001111011010000000110110110000000001011111011111111101110110000000001011110000000010111010000000001111111010000001001011010111111111000101111111111100110011111111000011011111111101011101011111101110111011111110001001001111111011111000000000010000111100000001001101101
00000100010010110000000110111011111111111100100100000100101100110000001101010111000000011011011111111001110110110000011100101111000010110010100011111010111110101111111101000111000000110000101000000000111100110000000101100110000000010011001100000101100010001111101111010111000001011001011000000011011001000000000100000101111111010110110011111110001001110000000011000111000001010010101111111111110000010000000100111111111111100111101111111100111101000000000000011000111111010100001100000100100000111111101110000100
00000010100101110000001111100100000001000001101000000000110101110000000010010010000000110101101000000010100000011111111001101001111111011101011100000101000101100000000100010110000000011011110000000000001001010000101110001110000000100001100011111110110111101111100100000111111111101001111011111111001101111111110110011000111111111011111111111001110001000000000111011101000000100011010100000000111010111111101010000100000001011100001100000000001001101111110100100101000001011111011000000011101111011111111101001010
00000100010010000000001001101100000001001000000100000001111010110000010000101000000000010001000100000001100011100000010110100000111111111001100000000100010101101111101010010010000000111011010111111110001010111111110110001100000000010001010100000001100000000000000011001000000001010000001100000101100100010000010101001100000000011111111000000111000010100000001101000100111111110100111000000011001011101111110011111001111111111100001100000100110110110000001001011110000000100011111000000000010011010000001001101101
00000010101110100000011000011101000001000110100100000100010100011111111001001000111111110010011111111111111010100000001011100010000001010011001011111101010110110000011010111011000000000100100000000010101011111111110110001010000000100000000100000010001000010000000011110011000001001111111100000010101100001111111101101011000000100100011000000010001100000000010001010110111111101100110111111111110001010000000110011100000000001011101100000001100001111111111110101100000000111010010011111100110110010000001100001101
11111111001110100000000001000100111111111101110000010001100011100000001111000110000001100111110100001001100011101111110101001000000001001000101000000000111100011111111110011011000001000110000000000011101010000000101000101011111111010110010100000100000101010000011111101010000001010000110000000011010010010000100001110001000000100000010011111100010100100000011001101101111111011111011100000001101111001111111101110100000001011100100100000011001010000000010011000101000000001001100100000110110110100000001011011011
00000010101110001111110111011101000000010100001011111111111101011111111111011111000001011111000100000010110100000000000011111001000000111011000100000000010001000000000010010100000000000100001100000011000100010000010000110101111111101000101111111110001011010000000010000010111111011111100111111110111101101111111100011001000000011111011000000000110001000000000101010100000001101101001011111100100011101111111000110111000000010101000000000010101000111111110100100010111111111000101000000101011000000000011100001010
00000011100101110000000110000110111110111001111000000001111110101111111101100111000001001000010000000001011111110000000110011101000000011110010000000011111101101111111011110000000000110101001100000001101110110000101100110001000000110110000100000001010011110000010011010101111111111001100011111101000101100000010101010011000001101001101000000001010011001111111011000101000000111110100000000110111001110000010000000011111110101110111000000000110011110000000001000001000010001100111000000011110011010000001110101101
11111010010011111111111101010000000000000101000011111111000001000000000100111101000000011010100100000000101001111111110010100110111111111101001000000101100000010000000010111101000000010000000000000010011001100000001011110000000000101100111100000010100111110000010100001011000000100011011100000000000010101111101111000001000000011010101100000100011111011111111111000100000001010101111100000000010110100000000111111100000000111010110011111010001110100000010100000101000001000010001000000001100000101111111111010000
00000010111110100000010011011000000001101100001100000000110001000000000100000000000001001101001100000101000111100000001101111010000001010010001100000101001000010000000101011011111111100011101000000100000010110000011110010010111111101001111111111100110010000000001010101100000000010011000000000111101001010000011100110000000000100101010000000010100101100000000010110101111111001011011111111110000001110000000100001000111111111001010000000110111001001111111011010000000001000000011000000100011110000000001011100100
00000010101001010000000110110101000010001000111000000001001001101111111001011100000000100101100011111101111000110000001110010100000000001101110011111111010001110000010110000111000000000010010000000001101000110000011000111101111111110111111100000001011100110000000001100101000000100101000011111011000100000000000000001101111111111110100100000011001101010000001110100100000000001111101100000011100000010000100111111100111111111010011100000101101010110000000100101001000000011100110011111110011101111111111101000001
11111111110101011111111111100010111111111001001111111111100101001111111110010010111111111001001000000000000001000000000000010010111111111100110011111111100010001111111110011111111111111000101011111111100000011111111111011001111111111110000011111111111110010000000000001000111111111111011011111111100011111111111110010111111111111000110111111111101100101111111010010110111111111101001000000000000000111111111110011101111111111000110111111111100101011111111111101110111111101011001100000000000101010000000000000010
00000000000000000000000000000000000000000000000000000000000000000000000000000000000000000000000000000000000000000000000000000000000000000000000000000000000000000000000000000000111111111001000011111111101000101111111110101000111111111000110011111111110011110000000000000000000000000000000000000000000000000000000000000000000000000000000000000000000000000000000000000000000000000000000000000000000000000000000000000000000000000000000011111111100101011111111110001110111111111001010011111111110000001111111001001110
00000000000000000000000000000000000000000000000000000000000000000000000000000000000000000000000000000000000000000000000000000000000000000000000000000000000000000000000000000000000000000000000000000000000000000000000000000000000000000000000000000000000000000000000000000000000000000000000000000000000000000000000000000000000000000000000000000000000000000000000000000000000000000000000000000000000000000000000000000000000000000000000000000000000000000000000000000000000000000000000000000000000000000000000000000000
00000000000000000000000000000000000000000000000000000000000000000000000000000000000000000000000000000000000000000000000000000000000000000000000000000000000000000000000000000000000000000000000000000000000000000000000000000000000000000000000000000000000000000000000000000000000000000000000000000000000000000000000000000000000000000000000000000000000000000000000000000000000000000000000000000000000000000000000000000000000000000000000000000000000000000000000000000000000000000000000000000000000000000000000000000000
00000000000000000000000000000000000000000000000000000000000000000000000000000000000000000000000000000000000000000000000000000000000000000000000000000000000000000000000000000000000000000000000000000000000000000000000000000000000000000000000000000000000000000000000000000000000000000000000000000000000000000000000000000000000000000000000000000000000000000000000000000000000000000000000000000000000000000000000000000000000000000000000000000000000000000000000000000000000000000000000000000000000000000000000000000000
00000000000000000000000000000000000000000000000000000000000000000000000000000000000000000000000000000000000000000000000000000000000000000000000000000000000000000000000000000000000000000000000000000000000000000000000000000000000000000000000000000000000000000000000000000000000000000000000000000000000000000000000000000000000000000000000000000000000000000000000000000000000000000000000000000000000000000000000000000000000000000000000000000000000000000000000000000000000000000000000000000000000000000000000000000000
00000000000000000000000000000000000000000000000000000000000000000000000000000000000000000000000000000000000000000000000000000000000000000000000000000000000000000000000000000000000000000000000000000000000000000000000000000000000000000000000000000000000000000000000000000000000000000000000000000000000000000000000000000000000000000000000000000000000000000000000000000000000000000000000000000000000000000000000000000000000000000000000000000000000000000000000000000000000000000000000000000000000000000000000000000000
00000000000000000000000000000000000000000000000000000000000000000000000000000000000000000000000000000000000000000000000000000000000000000000000000000000000000000000000000000000000000000000000000000000000000000000000000000000000000000000000000000000000000000000000000000000000000000000000000000000000000000000000000000000000000000000000000000000000000000000000000000000000000000000000000000000000000000000000000000000000000000000000000000000000000000000000000000000000000000000000000000000000000000000000000000000
