memory_initialization_radix = 16;
memory_initialization_vector=
00000000000000000000000000000000061f00ea0d4c0b9d08f111d1089b0d3e000000000000000000000000000000001018fe1e004ff67cf9b1f3d60b64fdc7,f951f00b0c6a08b506c20538f7ac1990f35cfca60951074802f8ffaafc1b10dc095f00bb0b88099b1284fc0003bf15bffc8d013bfa63f82cff10fd6a0a8dfb33,04ac0141044aff8607aff64a037001eb099b08b40193061aff1f09c1fbbc0c9f0646ffc80e84049b0d8f0987ff09093005e709b401a909b50907ff3d02a30a8a,002204a307690e600381078a00c7fd5e0369098d05140940058b02df04a2fbea14ef01e7ff870435fef107c5fa120f6c00ec0511ffc8041d0549ff29fda1fd75,ff9700de028202d3115e04a70281f884053d0d45fa6903b7029a03c10628fa5401090533f452fe6602c903090c3dff65090b0f9e06b011db087505940c47003f,0b74fb970a510e38013b01c709cefe1f0b990a0409f009fdf967fc16fc78fb6702b4107b0f7dfd40020101020d080bc5ffcbfe0e013e069d05e701f70cd60461,fd480a8e02880a950b51057c0653071f021a02cc01bf060b07a80d40feb70e5604f30367f9760b88fd1d0f0c07ea00f4117107d3007c00bf07b006e10894fac8,01b6041602b50810044609430e18020e073a0389092c054a0119fea0009b037804d8090b0ca7faf400f20efc0a5d074106b90ab401930dc5057201caffda00e3,0df60ee411f30dd01cc209b00c3cfab519ff0cdd0afd0893f6c91534e880fafa0d75070919f90c7a011a048309c9171703cf04b3f74cfe1517f4fb59092a0ad9,0e73f5240d1f13e8fd2aff1413dc0b3efd7e0016013d1ab0ff8314ee1042f813112c08e60a870b350165176315940b00093d027afc920b08ee12f8110af3004c,0feb0485fdb3067e0cf819490dbf110dfd8107110b4d0d30002d0d5efc0d00241165ee8425180e0d0686026318f41d2a03d305da15720ad8065a097a060203b9,0265161a05880fa0036afc3309b3034e07e30f09171ef62408df11a9030e04d319d405500b3f09c20d800b7e086506f4147215521238145411ff1deb0a7b045f,113308de0d141022007f02050f1b07800d160de80bd618150a1a147613b0039f1db0170616b302630a9ffe3d095707970842119b0dae05b51771091f06dc08c8,ffef061c0c341c5810a4008f036b0c5bff1e14a10b160f5504e50d190afc0f8902cc0c5f0b76fa9809260d5a08f808480f4b161b10bbfb6b10e50368110af4b2,0ec20f9e0a2e097af58309a00a9c038e04b711bb1719041219b711b8072b0f190d6f0866126e064ffc0d0aed00e11d2c0bd60e8a0f880cf409f100c0f355118d,06f10f470e5d15cd08a70a370f4d1bd6195d09851bd900a611491465fc8d0b6602a5162307f80a540f4911fd10defd6a0f4905c3fb890cb80882ff6109480bfd,07f70b9312f7092b184501ecff340f150ff4041f071c10caf996fd25f99c18460ae30fef137509ac0703030dfda612bf0f670ce0139f056d0bc6037fff61fd47,0a82f57f095b08da035a0fa2064b019f16180d71079c061c09ed09880e7a123103c10fce14270a6b0f240d3f002f16991236044bf7ad02b20d530b471b910a96,0f180720ff8e055e08330aa30de70e0a13fa0bf00f2a0fb60dde059812410cf20ac710e90dec08f81272fff709d520880eba0a8f0f511383f0be0d5607620342,0a2b1aac05b810020da502570ca403ce10e503a413701c421084095c013ffb0a0dca0be9128612dd13c00ac603300b4e0bff0cee0ac80a59033fed21091b0b3f,fbcafcf6123b080f02e5f7df0699116f02a7f6290de50a5a0a4010af11d20abf0d450eea0cd2ff6b0861058e07c602a407b8135bfd670ed90b9e063e030b0517,12df10f90bb31665fed40c390d9d0649045f15fa05f814821361123d1942053afec50d080af20ade13ef0fa516b508d40cc802c20dfb0b2e086608a707620827,0881f431114714881b2a094f0d9209db06ef09c40c13135d03a311b6f9b10ad60a04130d10de0c460d691063167f0f4f07cc0571fdab090209c210f503c70a66,00a50ba209cb008e0f6108ed08d20118f99211840a1805aa0f90085903ca07e6167e127417611ae20898101407e91344067e1550fb66047c0d84fd5407f9099a,fb1f042a0b53f2a817b3e7d40a39177f0c5504d4166005c009c91337138bf6611348094c023d0ef61c970c29f66901ec0bc80c640fda0b11053e10aafd3afee3,06f5145a112f0d4817380d420dc4fcae09d4fcc3069f076ff77909440f65058908a20a95031d082412860ffdff35112707acf46ffb6b11dd0cfd06db12e3149e,01a60f71f0d3fc2b0690fc1d0f9b07fb0d630f6b0ba4078f10c804060493002c0e40030006e21a830bba0df813cf0f5213030cd613380c3b08500b571582185e,092f04c9fbd61d84180a013006f004941a60105a12b30af1090607390ef007080a871b730168126709740d550ea10fa00e2708fc081f0616f76c144df669f529,08c8099d0ad706aafd890c1b0711107e042ffc44066efc850c59fdea1197f60507de0ff901870bab08f80dd505410eca13e504adfe0613b5124b125e08570d71,0e54069610b01b4b05d7fca802f20df7058a03800031106c1cf70e740bc204a8060b14c1148207ae13adfd7e10d70aa706520ee00e550f71174703f2104a097b,075e12fb0bab15d909d7fdaa15670ca20bbe0f3103b30c0703800e8210b705dcf59c01b50069f8520cc7ffb0f89908b80c690f960b9908000add037103270eda,0472107003380a25072e157c15b00abe12091a94102d1072f54812490dabf8500e3e0bad0d5a17f1fc7903720e6304e3104602bd09ba061413cc030c0ddf0a8a,f3cd13c6efe4067409dc0736120b189c019d04b405240d030182fe0013e308c5f53811c9fe7e013b065b09c10b050aa6092901feff950b610d5d0cd3ea260ffb,05ec09befcf5014ef3d4fc72fc2e0989057f1235ffae0e8d04380def001017f1fec005cd018afa9504cb082af46f106df6991b9500e50709ff9c17610abe109c,ff6913f4faa510d810e3097d0c41047205d0fdd1031d07b50adc027c103513e8f73eefc4fee416d9fd64089ef5c3fd830592fd070e9803a3033412adff43f904,f36401d60a0d1280fd1d1894eff6065b174d0b6e02ce0d040662021a165a071c03b5fded0cde089cf6f305cdf7c718c80cdbefdcfa01071ef642106702c2080a,058101a60663082007fc0a88150a01461676f75c0b5a0378083b0cc40b0d051f0511fa2d032efa4bf0fffcc413051b3410cdf9b513a00926f1ca0206fa79e52f,fe6eff130ae3044f03a013d706c40cbc0ef406ef0f5914d7f9cb0c290610fa96ffebfd0a05ca051b1391e49a18af0cc90ab310c0feeff8aaea02145f0000123c,119900ed08550207fa7cec6af49ff79a0bf2031af37e03c90d6c0e6c04d30ad402c211d617db08c2f5a7fe76fa6cf9060445f5ebfaacf8fb071207a506a90198,fba0e7b5f3210c75ff5f091507ab01ce03d409180a7b025df789063600130a0c039d1064071614ea072302a012eff97309d3fdb70aa6151d03faf3bafc520f98,1a92ee221c02075214ceff65074d0ca50b58fa501e8f014a12080666125007e60159079e00b3fa2f03fc04450d35fcf311d2f7f50ebd120e06bd045e07e1f5b5,03730a0f1adc0f66001bffecfb1d0b9c0bc409e2fa2702c305590dca079008cb0a5d0a78063102e50797f3e2eb930dce03770fb41104fe3efe82089d087503c5,09090aaf1529f3160673f2bb171bf11d0c91fe55093f015a0e76fe8cfa210994037cfefbfb7c0b2106acfd83080300dafeeaf5310a5b12c6f5100461fcb00fa5,0b9000c101ae083f0c6d1a7913170de7f673117d02880984f760075508f61e3e086805fc0ed9f2470923ff8b013519af086c073af81e0ad9081304f008bafb6c,0b5d04c802ff0b780da606a50f0d09ffea210b7cf2d10518e9e9f4380f0e0a2311a1126c0c69133a0f0a0a7ff52e04beff5b0e9013e8078605cd0f43f4b4ff7c,0843014207f5f8db0446103109aa0a4803cd0d82091c09b90031f9bd187009def4ce0b7ffdea0d3efdf31108157a0a4a021f0af10c1b040906850df10e230278,100bfcb41b071f47feaa16e71783165a079c0b09071d0cab12c3172a0542fff0f7f2f9410251100010adf2da0ac4077c01f7fd8212ab0e530aaff7c50b7010ed,0618f94713440c22f70ff1a8fc270a03f889f8e30220fd5e045b0c870da4f7d3fe9d05cb1085004a0ee9fe410849feedf71a1c8b015c1235ec831689014e0c69,0d9f01e90d6307ecf1b3066412b5fe5a03e6071b0f22111609080967fed6108404a0f85b0eef0d6e145f0a4efcdd00761d4d06e2046c06460561027ffe36fcd2,0acd0e47077ef42d0d38f760087a06870ce9039af71c0506007b149805210842fb00028d1291ff4c012809c8fb0c09f503830e0a0edf11f3006001d4016b0b4a,086a0a34fb8df7840d3301c6f69c0e3cf59302770d5d0ea50e520b260de8145afdaafdb80dc4f622f52306bdfdfbfeb91a28154a101c13cb0464ef62fef7f559,f8c60f77fff308e504f1f4b9f97015a3f7d70a60158501240c840784f48904900547114c08e5f6d7ffccf22bfd9bfeb9070410d7fa2b06f8feb50e8507affd68,edfd01ca158007c1070407e00423039806441366fecb076a0553115cfff00fab072ef23a0a9e058af69efbb4f9b911ca0d7911c6078114dc10df0550f95f0a3e,0d93143304f4fa260719ff590d0703f513570d5aec1c0dc91ff5fed10b4a00f4fd0a0345f8c606b2fb2c0112fa6a0e35f6e80c3beb53020e13e5f7ed1be5f0c9,fefefe9a03fc0c960098f34507ec1bd5f9f5fd89f23312120491da0b06fcfec8095f0992eb880a34096d048af28a01c6ef0f08320e6501010a910cf801980727,1b8d0cac0bd605681e5e06b7012d12d70a64030f0f5efad706c1ff95f86ce32bf34d041e03f311fd152c06d60c3610440632fdff032211c0fe190dc10b65f9bd,f24efd0a114717f3fbbf0ba1fca108deff7e07371496033811eaf0de0641016316c8faf71148ff5406de19ddf1c4fbfc1b670d4308e20c52f7da166f07f90216,0a9800b5fecd04190606ef7e11c2fd8bfd720840055211d700821696fd76090a0fc006f4024d03ec1d17fc9212e3078010fc0c88fd2b11ac08530f6310eef9ab,115e05eafb29fcc40cacf93b0fa203c5fd3c1e201da41a7df678f331055aee4e0fcdfee4fc2b0142f697035a12b2feca00730c3209d716ac0559ff5d0e53eeb5,051a05c61048ff4f15770c69fb3cf7f2fe041a79f2f5eff0ffea0801f8fa139e148017750bea085715130d8bf830fe910a560a6dfd9c0ab5fdcc03580cbc0ccb,18f6f3140ddaff510e3cf3cf053b1c07daccf5de0ab0fe6611f0115cf8f500050058047004e40159fc0409120803fc94f1a510190dccfc6e0b6afb4c0c4907ec,039bef51ff671aeb09cc0ce8fcff12e2ffbc17480ca0f7921f26116504450adeec9303a9f9dbde0c083ffafc1107fee51b62038308ad021d067205a5099b0d57,fbf6f48a03d6069ef9bafa5c080301591608f7be09eeedf6ff2307b70cb4fc22f9e117381aad0b05ea79fd310acdfed5f3db01eaf8b6134714b2fa79ffad1018,fed0fe52efb711480f630a4f0e01f986076e07710dff12c104990011fd1a07c1fefe10a001d00f9dfc2d03c0fb35f57c0efa084a03eb06cb07720d7b05a902f5,01741513f33b0c7a0c5007ce081302570aa80927fe0205aa0943f0d60339fddf05211157074d024a02bcf02e0b23000e010d0427059106881c04ed20ff230a7c,09adfda3ff1df823f529f561095b053ff3b6f98207d60a87fb80f9f2fe750ce202c110630243081c09a70724080e1266fe01060208770f65fd710b87f9db0a5d,0f3fff73fe8506701ce901baf93e009e09b80062097bfd4b0b221e80ecbd10e0fa76063afcaef98102cb0abb0641f346039a05890221f5bb068a0ae00f7f0b12,0cabfdec1571084f0f950b7d08b9fc90ff93fc74fb7105e710bd0b8604bd02e3074cf6110cf2fa230bc30172f71b073f01d4fbd8fc8f0a9e0373023007940d94,fef6075dfbd6fa020074090611c604c2128b09f607041043fe7e0e54fd9a0268f9fcf664f8c8fdef09c70213030df8f1024beb2300d0f184fcaf051b07a003fb,0dfd0065fed3fa3dfe1d02610f1c15db040d03a6fdf60c4902aefa8806c2fa6ffbfaf8eeff3e09c5060cff050bfe0825fe3712e502d00d60013603ad009b071e,f3d6fedd00880241f5ca030707520998f90c02cafec907f304421168f93e0e3ef939fbe706b309d4086905fcf7ba03fd09d4023c03fdfb8805900412fdac0737,ff30f9b5fe46ffc4070fe7d1fa9bee4103da092d07ad034404fe12f506acf8e90b3d0e43127ef4a30616fdd201010c6efd6e08fb08b4063c0513fce50a8cf298,0c5a06a209e408c105c8ff15074007060821010d063605b0f9d80c8101920516fb87045f097803eeff8b0131115302750bf601c3015a0634087804a30bc303ec,ff2e012d08f6ff6af928ff1806d7fcc40943032f03fafced073005b2fea804d10913fc9108780655016b030efc8dff6707be0bfc084706380687084affba02c0,06af0b41095b0498fa51fd5509f304ea099c0670072602700194029507540128fe9105d203850560026a055e047804ab05890d55fcbf05dcfc0402bb02990db8,020bffbe02f201e8ff2609bc06530669067ff85af6860912049a087207801049005302adfd380803033dfe2bff9305d5075b03b906db0c99ff5e06a20094fe85,ffcf08e7046c04b4ff6b07a605900ac209a40643fdce075c0265ffca02770327fcf7030efe72ff62f7a10813022efa6e004a020ff9f30b1cfebbfd2b038c057a,04720d8103760bfd07570589f65d011a0c86012409fa015500f10fdffc6d0ae602160f9500c7fdae00d809b9fc5d066e084c0c11fed10488fe1e052806b300d8,076904d80c3dfe7a0a6904c6fe1b0ba3014c071efdb306290711097a07f307dbfbfd093609f00702093001c6029afd0505f4073b0e9e0477042b068ffc5b06b4,fe4e01ae071c04ad090f004f002a05d403e20773013e046903e109180d2bfe230871f7680bfbfffc050605e4000000b10231f9f10777067f045a08e900440c54,038e044d007607b60abe0b350234ff78ff830400fd66fa2f0344fd01fb44feeaff48ff8d02f3ff49058f0305034e04b50ce9099c0820012afeda0e9f05cb0488,0716f39a06820b14fd04fc8cfd8c098afe7b0af9ff03069f06930784f97b092cff0b00db0d30089d00f7fdf70588070104ef06e1ff5d05c6fc7e0213ff8d094c,037f099c090c00ae0c1cfe01ff540485fcd606c901a9051f0570ff3c02a707ab058f0769049d0263fe9c038f01fafb7bfdfefb12080bfe2208cffdeb0585fd60,0ae902790b4a0d28fe350b8601c1fa14006cff98fd8efb3d056dfa2d0615fb00ff05fce10108fd7704830d960c1a073dfdb9058209a6043b081102d5ff270231,0325f81bff9e07db06db0826052f052a0e4e09c7096509c0014f081a08ab06ed0601032c05e908c9075d0d2002a80a4d061bfe4e0b7d0492071402800f5b03a5,fe5b06410012022bfd6500e504b60b1a07f6070d05dc0a4e0247ffcf055e00520bcc0652073008d402d001e802cb021a019804120086fe650b4cfe15ff5303cf,085200ea05b207960977033301e206a204200040093604b7fe6cf907fc76fb68079602e7009e04cd010400e1feb5085d0623feb0083800f3084bfc78070a04f8,fee70f6a0bcd0eab026efcf4f84606d0076406bcfefdfb5d01a40e75ffed09e7031f05a2fc920853010c09d8022403ac074204d2073209ac04d6061bfcf80174,ffe3ffe1ff57ff9dff98ff80ff66fffa000dff53ff9dff64ff59ffacffd7fff0fffe0017ffbaff79ffc7ff70fd9efffe000dff68ff48ff7cff4ffd7d0003ffff,00000000000000000000000000000000000000000000ff8cffa0ffa5ffb2ff8900000000000000000000000000000000000000000000ffc5ff8effb2ff8dfd66,00000000000000000000000000000000000000000000000000000000000000000000000000000000000000000000000000000000000000000000000000000000,00000000000000000000000000000000000000000000000000000000000000000000000000000000000000000000000000000000000000000000000000000000,00000000000000000000000000000000000000000000000000000000000000000000000000000000000000000000000000000000000000000000000000000000,00000000000000000000000000000000000000000000000000000000000000000000000000000000000000000000000000000000000000000000000000000000,00000000000000000000000000000000000000000000000000000000000000000000000000000000000000000000000000000000000000000000000000000000,00000000000000000000000000000000000000000000000000000000000000000000000000000000000000000000000000000000000000000000000000000000,fe2cfd5cfbfb008cf8dffd67ff0afc41027e00410050023cfef6fe42009501f90625f870ffdd003a003a02080034096bfde3fcf7fd1a074402a9fe3000c7fcf2,00fbfba3ff70039001f0075603350115053301bafe3dfd24fc40023ffc6101ed01b600beffbb005e017401fd025aff8bff99fe1bfebafdddfc49fdf0021e026d,044b01bbffc904b3035701b7f9db072f0b28fafaff47030a00f3016601330588fbd7059603640105fd6cfe2700c7052bffc1013ffe7bfcf40018fd430483fb84,029703e4041a00d70092035a0281fe69fdd70516011601bc00250b8e0218fedef907fe9eff37fd98ffbff9c401dd023500ebfa8405c30026fd2505f603bdff4a,0448026c048101eb04280111018e05a0ff980456fa9203b5fe2bfd8c0115018000c805030591054c01fe070a0344ff4e032efcf9ffc304db025e023e004d026d,02ba061d04690451fe48ff27ffea02e20532fd5b06bb004802affd8a0201022100f304ff02b0ff6b024602300456fecdffc5019c00bb0187ffac03a4fcd9030d,ff3a0044ffdc118e03c6067d098efd48048a00f1ff9b046003a80a2bfd65041507ea050c034908710204fc52066dfdf701bcff7405c9032804c5009906da02db,02b8fddd0142fff5ffdf05f102d000f903b100440094004303110435fe8bfe2d0082fdf9fef6ff1901f600c4015406d2fc8efe37015002a3fd22ff8a0560070a,03970186fb9e01faff670484017f019d01e403f6fef0035301bb0b310361014f04d5ff98fd160553069a014cfec503e806e70403faee00cf004108ce03cd03ad,fa4fff500050ff04013d01a900a7fca6ffd2058100bd0100026602f002cf029f050b0237000afbc101ab047dffc4055f005a01fc03acfa3a050504220182ffd0,02fa04d806c300c4010004d3051e037a05230521015bfe3a040b0792fe9ffcc802ac013007a507300254029600b5fcb7fe070108ff9406e4fed00406047802e4,02a501b5088e0126fe5c0258fde3039400dcff470587002401a3063dff7f017300650250fb10000dffe9033503a400fb038109fcffa705ab012901ccfe77ff41,ffd5ffe2ff93ff94ff92ff9200040012ffccff88ff9fff8aff81ffd9ffe0fff90008fff6ff8fff97ff8dffb2fe96ffd20003ff9dff8dff95ffeefeb300150002,00000000000000000000000000000000000000000000ff90ffa2ffa8ff8cffcf00000000000000000000000000000000000000000000ff95ff8eff94ffc0fe4e,00000000000000000000000000000000000000000000000000000000000000000000000000000000000000000000000000000000000000000000000000000000,00000000000000000000000000000000000000000000000000000000000000000000000000000000000000000000000000000000000000000000000000000000,00000000000000000000000000000000000000000000000000000000000000000000000000000000000000000000000000000000000000000000000000000000,00000000000000000000000000000000000000000000000000000000000000000000000000000000000000000000000000000000000000000000000000000000,00000000000000000000000000000000000000000000000000000000000000000000000000000000000000000000000000000000000000000000000000000000,00000000000000000000000000000000000000000000000000000000000000000000000000000000000000000000000000000000000000000000000000000000,