memory_initialization_radix = 16;
memory_initialization_vector=
000000000000000000000000000000000375fc0f07a2fa780432fac705ff05ac0000000000000000000000000000000004fc003b0030001800370018073d00a8,0347fe3afce306e8fddbfc81fec7fc80007608140670fe450262011efac0fa4aff8e04e303b40355fc83051a041a003dff20fe16fce5ffb604b602f4fc49ff89,0049028a03fc005d020900ee011c00b6ff7f045d006304e00158014effeb0136ff0b029101cc03f20479ff9600ae02430426fd6c02b3fed60294fd8bfe2e0021,fd7501dd000bfde10148ffb70471019a02fafeaa041b00b1028a02c101f90212fe0bfeca00b1013a057bfef0fd9001d803ba0097015f006a01a4fba002d20130,01e00530ff4205360399021400a9fe7c03b80367040e057e01b6029a059c03dcfebc02ab057902ed027c051001370605ff88016200c2fda901dc0a17036205ed,035403cc0671ffa106150297010c01c70121033c05050562fea0012d088b03da00e6031d0381ffdf00200118040d021e07acfd35076b02c9036300b906e3047d,04dafc9e01a0046801f103e801dd0352ff5304610244ff03012001f3009704fe038a02a403dbfef5ff0706b802f4052b0680fded01dd099d06ea00e507290387,0289ff3f055f051eff84ffd5ff340413ffe301b7064e0250024004f004c80517038b02b90229007e01290511070709bb01840331018effab01b4005a06f20097,02c505b604fc04d310210424fd8505f4016e0a520c3d074b0372082d10ba0054048b076d05760f9ffbec012b0b2c05ec08d9053a01ac058ffd93fe3504690737,10bcfb170a5f00a204a200c8082f03f603be01c30e10064405f401200598fd2a0a2b093b04f90d48046f03af0352061c03d90d62046a0432025e07f7fe73046f,078801befe7303580040062f0bb609fa0bbf093604f2f859028806bf0fc9098f09e109e0057303f4035709570c2807dffbb006950330013009820a720615099c,0b1409e30a1b066406a309b00cd8070f038f07db06d609340a490d77fcf0021909e60a5806df060c059a07ec058002f0070b080c09d802b7055dfc0b06bf0b8a,fc130a1e06c4ff220760fbc002f7056903fb030209020bd207b90e2202580c270a8710dc0412f6fe06a506be06b00fed03dd0ba6050d08d20c2206e20c0707ee,06d106bf03190795081102d404d2021d03ca0530028b0ee2ff6f091b0e300a1d05ad06f608300a7e08e00116095c073a05070d0508c805980d9a053409970206,085609710bb008f002bcf9a80316fe8e0a6108880e810ac002f20a7009b7072c09200858fcdd0c4b0de0fe5608f5fcd006c40427094f064b07c2035501c606ca,02cffddb0a5304880765089c0019025c095e0a7afdf5029508c90197026f0b3b040a0321097a06db091e07dc08c30dac00f3014709410875095901f50b3708e0,050d044a05c50780092305000a7602e40f480a5f0d5009ce0e5c09a5fce6f9b50cab05f60059104a0a76f370ec4004060aed03240d75f86708920d57100cfbc5,08fe08e607ae0a740bcd03b1f9ef12b40cdc09f3f663f49005d311e20d37f18ff3e3f9020dfc04c8070b036b0b010f8b0cc8f4b9f3e20d01081e0827fc420a34,fecf0ae00f85f5a018f4093c03700606f2fa0cb612a8034002de16f4101003cf002df2b9fd9e0034fe5501690bc2f9e6f6e206f112950111fbbd0597139805ef,ff7f0b790a4ffc7d0db904a9022ff195fa1c049ff85d07530a510c09039905050451fdc810190baa0cf4041cfd2aff03088c031401a001e307610a7c0725fdb3,092d006c00e607dd07bd071d08020c2b042dfd3b0a1800060ef30311ff370e4c05b2086a06940593047d01cffa7611b1098f106d0909fa800f3b04f6f60a0a11,0e5909a2fb58f37a165c0f23069101fe045106bc0914f7c90bb2fcb2ffb9f06df8e31522f148f58afaa50da9131c010207530c430ac60acefff70b3c13d808d4,0753fc10f3c8fe500c6b0798066f0cd9025b000b085f08f40a52141908a6019f0b960cc60a0403f505600a94103f114d0f8107b2098715530ad706030b63fce6,ffb701d60699fd030f74ff1b11670071fecfec410e7801231355f95a11e500510ebf0629f1f309b408d0fed403ccf7befee6fdb10cc703ff0f050ffc0cd50f83,0000000000000000000000000000007fff54fff800c0ffe4000d00e2007600070000000000000000000000000000fea0ff4b0039ffe1ffc5ffdc0087ffa20010,00000000000000000000000000000000000000000000000000000000000000000000000000000000000000000000000000000000000000000000000000000000,00000000000000000000000000000000000000000000000000000000000000000000000000000000000000000000000000000000000000000000000000000000,00000000000000000000000000000000000000000000000000000000000000000000000000000000000000000000000000000000000000000000000000000000,00000000000000000000000000000000000000000000000000000000000000000000000000000000000000000000000000000000000000000000000000000000,00000000000000000000000000000000000000000000000000000000000000000000000000000000000000000000000000000000000000000000000000000000,00000000000000000000000000000000000000000000000000000000000000000000000000000000000000000000000000000000000000000000000000000000,00000000000000000000000000000000000000000000000000000000000000000000000000000000000000000000000000000000000000000000000000000000,f2c7faadf5f607c90188fc74f39af9d110de016dffa50e42f5b20188fb60ff7a0e32f15101c80d83eeae07a700a40e34efc2f4aef6631114046dfc030be80931,f9c2f474fe110cf600ed08f0033609db066f0b6d05bff88af43f0cdcf84effcf01dc0ce3020e075e0eecfec807c711e4f2ff03b507c20640f61ffcd4013a00c6,18271e66f83f04ec058203e6fb5504ae0413fbeeffb90edc05e1f8ccff260a9e00e2193801cb06c5fb0e161006dcf9b0122306960300ffd9f79202ed1699f6e3,05a3ecb80ca4034305e50aed13a8ff8bffe10c840499f914fe7512450635f8daf687f701f3e0060f0790f1da0d3ffdd0065e152212ea013506e615af0f6aed59,05d7162ffeed09def72407720e5e02a908d1077909fd0597fa0b0ad50198ff3715bcfd550ce40174048aff4f04bcffc7055505cffb3301990bce0853ff41f6f2,00110ba1fd9afac303db08acead10118ffb903bd0273043e0168fd34fe9efec00f12feb610ddfd92063605ee023b0050fffffed3fc2e03940864189bfd3408c5,02ca02bf0a43084c08dd03a704920833063c05490597ffbb09e707c808680a49080c08d60846064a05cf0f40077f030a042d0121084d077605800bfcfbf403b7,ff6f051007b70820033b02630cb00c6c05e606eb05c0fbb9fb11168c0203041b046a012a017efdf110e7fde8fec8f9de07d3f69f066705a1fd7ffd590d9d0494,0b10ff490390028a04d6f9d1ffc3054b09a701d404fc0515fb71040a0143fbc8fea7feee0202fbe4fe69073507a800220334fdc601cf027b17940639008d01b2,02e50730fccff7a008380584047c0accfc2e02e1ee5b0fdefcbe081a03ba08ba026e03840a7008b8019905b00092ff2cffed0510f0f3fe1cfb72042fff04fff2,0445ff91f63cf4d1ff52f12608b307b8fc50fe70000c0a03037fff33f843040206d803ae0447097d079bff98017af8a80861ffc8008c0b9dff4b049efca3f09c,150f0611fb59fcf2feb3074806731638faf9fae802440a70027e035d1a5cf74a04afeafffc1d032204b702e9fe0a073c0cc5029ff0ee06edff3b07c200d5fd42,0000000000000000000000000000005dffa8ffea007affe6fff100950018ffee0000000000000000000000000000ff0fffd8ffe8ff6c001dffefff84ffba000b,00000000000000000000000000000000000000000000000000000000000000000000000000000000000000000000000000000000000000000000000000000000,00000000000000000000000000000000000000000000000000000000000000000000000000000000000000000000000000000000000000000000000000000000,00000000000000000000000000000000000000000000000000000000000000000000000000000000000000000000000000000000000000000000000000000000,00000000000000000000000000000000000000000000000000000000000000000000000000000000000000000000000000000000000000000000000000000000,00000000000000000000000000000000000000000000000000000000000000000000000000000000000000000000000000000000000000000000000000000000,00000000000000000000000000000000000000000000000000000000000000000000000000000000000000000000000000000000000000000000000000000000,00000000000000000000000000000000000000000000000000000000000000000000000000000000000000000000000000000000000000000000000000000000,