memory_initialization_radix = 16;
memory_initialization_vector=
00000000000000000000000000000000fd56fbdffb82002fff3b05b1057a050f00000000000000000000000000000000052efe2b041b03c8fd1afb14f9b9fa3b,02410266fd4dffe500b8ffe9fe35fe32fe6e01e1fc90ffa0017d03d107f3ffa2fcf7ffd60245fed3fc45ff6e03af04ee00a9fa03007801130372050bfb4802cd,0139016dff42fedf0057fe5201a9006b02eb00e1fddd0120003d0336007f0070fe2bfe6d0160ff5d01ea03850067fd42015ffe8a00f5fec700fc017401bafebb,01c7035ffdd502e7feaf029c002402d3fe6500fafe22001f00c005c100f3ff820130fe82045b007efce00248ff8c016100610017fff102e3027dfc5b00f1fe42,fe02027aff8a017e0352f909fe41f98f080d03600114009ffb5b05a702e9fe9e02d203d300b1fa92027b052503a904e3fffc03e4ffd8007c066efb96052cf802,ff06056cf91b06cefe9f039f0545fe7cfc95fdda087a0712008606f0ff44027e07da0545f9fffac609a3fdd4fdee071804fa080affb40264ffdb08f408f3ff42,05a9fb0107c1006c026e058300ab040307dd0686ff3bfec6fdd3070d0c5305c2066e0935084a02c5006ffcb7fd1dfc33fa9af8a0fee40225fca50673f9dc0148,0add007903b405810749070f0026068cfdac079bf8bbf9eb0125fbe6fcda017b03a5fc39043afd6e0309fff7fb9705bb001bf89503ab0207071500270247f9e3,062c063f05bbfaebffeaf7ed068106cd084d06fcfe73fbbc06eafef006c90363fe960c17fd50ffdb0a8c03c40636fd86fe5a00e1fd05044006d4f80301aa0140,ff66ff19fd0505a0091d04b8fdec04f500b100b703040888fb66fa8c008c035a03d406dc05ffffd9058405f50452fc7304820420fcbb0530086b03b803f7feca,f947056dfa9409a0fe9706e0018bfe91fe5dff0d04c103c00be8077602e507e20276f6e3fadc0638ff7e00eafd8dff9e011204dc0144f882004d038afc570579,045d05af0353fa4c022d0134fc330546ff5602e4fc91069306d404d10bec05800133072705a4ff77f5d90603fd7c035e0341fd1300180076076304cdfec9000e,0302069801ec049807570280fca3fbfd078702150333fa64f68807080553fc9103350279fc5701f0fb6a075a06a4ffc508eefb6b03df00c808ed0474f7acfb8c,04bfff5f039a040a01f1f826099f048e035103540a7902a3fe12fdfbfff6018b057f053e0890fdc0068c01390026f8dcff230158fd8b04b506c107ecfc94007e,03ad051d000d024600780207fe55f989fde3fe57ff89044cfbe6fe3200b70b94018f07380680fa2cfac3048e0580fbfc0833068605f5f9fffa39079e0260fbc8,f989fecb0414043ffc9503a509ceff26033e056605de07ad011dffeafcb2feecff80046dfe1afe8805f904860580069c0804075702b7054c01e1076e0846fe77,09a106c508dd08f009440a4cfdd008c2f740030d028e05da0729059f0798f392050e00a5fff707a4f90bf9a007de069404420ed4fc3c06f007f9fdc9f8effc9d,0a6405d1078afcd805e0fe950a95ff4909b1043001e304a3fc8a058c059700690a3e038b0a350293fab9fad301dd012fff5ffdf207be077a0ac4023000e1fbba,0685069a0de4073d08bc02440883f546fd58092a05a1f4cd0d6af559f5ab040e06dbf8b1fe050cebfdbeffd107de01f9068c06800a21f261051bf87a0115f895,0689f9fd019f0a1a0814090603d9f6a1f938f1e1060106e5f79a07620202016d082009ac0aaa06b9f5f70b0df8da089af3bf06c70040fb6c03bf067d07e3fead,0a4409a8f9b7f76ef48cf91bf5f20a6709fdf8e3040d01c2f725038e0a550658fdb202ce00b00f1afd18fdcb00e805a5fab3089afc11f94507e3029f0856f59e,046208760b03071908f50ce8052efd120cf80482f686ff5d03b705fb098308dbf88806120415019c06b901200171083d074b0085f43af37df7820b78fb9f063a,002e080a0d4e0108eec0086b07c4f67bff71052af95c0636054b0c34fce8fdac05a40a4f061009fcf22706e908ecfe5ef86e079d0378034a093c06aafa27f995,077503c602edf930f563fa40fe00f6a2f84afa55076f0609021cf852037d04050b8f094a0421022c06a8fcadfdc10106089b013d01f00b2e04ce0a2103c0081b,00000000000000000000000000000039fff1ffe0005a000ffff000410028000e0000000000000000000000000000fe98ffecfff2ff300010fff4fedcffe3fff0,00000000000000000000000000000000000000000000000000000000000000000000000000000000000000000000000000000000000000000000000000000000,00000000000000000000000000000000000000000000000000000000000000000000000000000000000000000000000000000000000000000000000000000000,00000000000000000000000000000000000000000000000000000000000000000000000000000000000000000000000000000000000000000000000000000000,00000000000000000000000000000000000000000000000000000000000000000000000000000000000000000000000000000000000000000000000000000000,00000000000000000000000000000000000000000000000000000000000000000000000000000000000000000000000000000000000000000000000000000000,00000000000000000000000000000000000000000000000000000000000000000000000000000000000000000000000000000000000000000000000000000000,00000000000000000000000000000000000000000000000000000000000000000000000000000000000000000000000000000000000000000000000000000000,f258f58bedeb065af329fe44f2a7f8c9176e058d09af09eff4c5fc2cfd92032f111bf29c0382032ef4770fb0019b1019efd3fbc9f65b09a2fbb1f4840306fc70,fa3bef77fcc0100affa60ba5046f014f02fb0c85fe4cfbcbf67809cefd29fe1a065b088e00c509b5f96cffb006290b4beedaf5ccfd67019bfaf8ecf502f90532,11d51dedfac402d3171f0639f50f07e90b24eb07016a017ffb1df636ff4305bd0117087a05e30239f80812f503920b53fab707b20061f581f65b04ae1c1beab4,f92cf29c0a3500edfbc406de01790640f2d6fee90114ffc604d20c74fee90594ec6beddeef1cf7320692ec43017b0058fbc8f7951061ff3f0b0d13080a82f461,02030f13010206fb002202590b55068bfcaa0444f60202e8ff3a01affb7efe0e0f76069105f9ffcfffc401d700f002a00c0d0606f90bffff0c6e03fdfbaffd81,ffaa0b650187fae00216fc0bf836fe43068b00ee0a78fbd4025f01e006a9fff50a0a11e901c3fb6dfc1102c2ff900741fd8df6db025903ba0e6e05c001ee05f2,01da053d08bf02e502e9003903900aba027f03360b8a0b73036d0579004f041a0659fff509cb053101bffd8c0510fbce01ad102ffeeb032d0c0b06d300250535,007cf3aff9c805b904d40765fd6f0776ff95fccb03d4015c00b5fee30288fe9202ed0735fbc2ff1bff3102c5007cfea50473fed704480c940557fcdafb81050b,fe640c89fd9d04d4f63a06cf029506af09a5ff59f82ffb1d00cf064f057a0556fefeff1e055d0814fdba014d0776028801aa025604e0ff260c27094b036d05f3,fb6cfc45fc17fb2c0255fd5afc15fdc7fb1a052c012b0261fda101ca037503dc091d00d3031c0552073309870173038c020c045ffeb3ffd1fa3bff3cf9ae05fe,f9b50681f37406c5066efbfcfc330609001bfd9e0511051b0690ff75fc580726fc4afb94fcdf0c6efe8e042a01b0055406f7fb35019f06b500bd059affa2038e,058b076efff901fff8d603aafed5fdc9fa1b048f03b810a4f2da0ab1f62af9d3ff89064cf8affe8305400658fc6304080bc7020cfe49fdae0317f99400dd07ad,0000000000000000000000000000003effda0008005cfff2ffee00700002fff30000000000000000000000000000fe5bfff5ffeafed50004fffafed5ffa9000b,00000000000000000000000000000000000000000000000000000000000000000000000000000000000000000000000000000000000000000000000000000000,00000000000000000000000000000000000000000000000000000000000000000000000000000000000000000000000000000000000000000000000000000000,00000000000000000000000000000000000000000000000000000000000000000000000000000000000000000000000000000000000000000000000000000000,00000000000000000000000000000000000000000000000000000000000000000000000000000000000000000000000000000000000000000000000000000000,00000000000000000000000000000000000000000000000000000000000000000000000000000000000000000000000000000000000000000000000000000000,00000000000000000000000000000000000000000000000000000000000000000000000000000000000000000000000000000000000000000000000000000000,00000000000000000000000000000000000000000000000000000000000000000000000000000000000000000000000000000000000000000000000000000000,