memory_initialization_radix = 16;
memory_initialization_vector=
066de10900cb013ff7fc0214f78906fdffee01b50198016402c0ffde027b03760000000000000000000000000000000000000000000000000000000000000000,00da026600a8016bff9b0067045603d90071005d00ff0084fe6cffd5024b026f012203c200ab01e0ff690324016700eb0103016a02eb002d00b40120ffe0017c,0280015b02e4090d0199030000cc074503ba0b660081025612cc02b4011402d101bb09e202f3000f0407fe10016e018e020408a9040c053c07d910d1007f02b5,0045041f0243f4df0363061305bb012d014f00e5044a0799011d04a205c7022e0bfb01c5fee0ffff0c59002f01fa01830138033300a7028afe0af9d500abfe1c,05f117e210fc0fec023d0705027d05c6033afaf700b10219f3d00b8205250c64091b0a3a079e02220e8efc39f6a50193020dfca802c4f8d50213001f08ca055b,01e3facb0223fa06f587091f0c940de7059b03eb02a7faf0021f032b01e012bd02caf60d0357ff290148fd56fbd40aa900930404fafa115ff466017dfbf0027e,04f3fbfbffbfffe700d3ffcdf6f706a203340847fd33ef8800950384fc88fded01a80601f8ca034bfd101f5600f2ff0b04f9023601b8069cfee30ca5066c02da,0820f7790f63069b04cfed6b03c007100b6b0fca01bc00fd0834fb17fdbc056a084effb8060603a0ff56e8a3075f02cbff4f041406750c4f00800b3b04f50da5,fe65fbb00229fdbc02d6fea8fd68fff701d4ff24fcf9fa4f00ed0129fd87fd0afe09005ef8f0f8b4040ffb6f0158003ff9a0fe9ff9a3032df71e02f4fdd003d6,fc29f9c201b901b0ff2ffb7305cdf9b50780012afcd8fe06fed5fe5fffd101a3fed201a5ffa30056f7e9fe500149facc00d2fd32fd1cffcafd79038de7c9fe28,00dffcebfd30fc88fbfdfacbf97bfd37fdf1eeaefe59fb49fbcb008d007a010d014affe2fea4fd670177fe31026608230059ffbfffe9fc3701d2fd230a34fa4d,f6c0f84b05d1008dfc9e0019ff890298027001140362ff99004805640262f94702a0fcee002603e107d1edd7025aff59ff08ffaefb0c0287fc28002e033a0876,ff7d0552016fff29fd600028faacfbd1ffe30221fcd2009900f2fb17feb1ec4501f0fbf50197fc6cfd4d0799022000c50080fead0408f578fb58fc3ffff7f896,fa920099022efd8b026a00f3fe1efd54ffa3ffa6fa39f2bcfce2fb2e027efd26f495fba5fb3efe33feb6fffbfbebfe97fc25fb2bfb23f813fcd704ebf6e4fd6b,fe11fbd9fda3fe28ff44fad700c1ffbcfb4a04a1fa3905caff11fc2cf975033a050a024bffed02b100a6ff240746ff0a03a5fe2bf7af018c0098fa50ff8bfe20,002505c0048e034f015902eefe6efff80362ff9afbf902130354fa0bf502f8c30454f99a0202ff17fefe0308f8a3033202dbfea801f7fbe4ff46fec50144f9dc,fcd800aafeabfb86fafef535fee5fc00fc78fc0dfd36fb1efe57f9ecfb1501fffcbbfd93fad4fd2dfe1aff1efab3fb23fce5fbf5fa7cf98cfe99fd7bfb98fbda,f513f853fb79f1fdfad1f95bfa04f7a1f8a5fd21ffe1fa51fc02f90efbb5fa7cfd21fd32fee5f83ef954ff18f936f66efd0cfa1e00c7f9dbfc62f83dfd66fe8b,f47afbcffb63fbf7fb55fcfcfc8cf788fdc600e7fba8fc70fe5afa68fc58fc23ff10fa42fa58fd1efea7fb6ff83aff1ffbbefab8fbaafcf1fef3fe48f885f9ff,fb52fc1df866ff59f74bf97afc53fca7fab40018fe57fb6dfd1afc7703edf914fda9fdde020bfa40024afbf4feb2fd6bff3afb35f7e5fe0bfeddf8adfd67fcae,ff07f9f0fcb0fc47fb0bfd4ffb4cfd50fc79fec7fc30fb89f968fdf5f821fe23fe060030fbf8f311fe58fda4fd86fa4bf9a4fca6fce5fb1bfad6f860fd5cfe05,f9cefd370069fbb4fa3bf9e4fd300119f5550133fbfcff76fce4fd7af5abfaadff80fcca02aff810f88cfb2dffb2f996f579fd19f887fbb7fe6efc69f3effb0b,fe3bf8a6fe09f946fd9000e0f624f9eaf6f1f94cf6a2fd86f78cfafdfd5af9affb91fd31fe0efd08ff05fa1bfef6f93dfcaff90afd53fc0dfab1fbf6ff70fbc1,01a8fe37f623fa6dfae0fa71fd05f824fb97fdd5fac2f39afdd0fdedfbd6f9b9f4b4fb58fca5fd59002cfa3b01c7fbbbfe9c00bafddbfc90fbadf855fca1f583,fa44fcaffa40fb2af819fd23fafcf8c6fc58fdc9ff9ff95efe04fcd6f896fa5af9a8fd1afca4fa7bfce9fd02fc81fa14ff3af977fea6f81afe49fc45fc03fda7,fb4df9c5fad6f9a7f8c3f9effcb1f959f9fa0050f8b9fa66fc59fc72feccfa1bff2afb86facdfaebfb82fb4ef8c8fa77fe63fcf8fc2bfa37fe44fc73fcf1fa7a,f8a7fe1cfc40ff0bfd56ffcffc0ef926fce7009ef6d4f9c3fc78fe63f963006dfc4ef5acfb88fb5cff44ff64fa3ffebafc91fdc3fcdaf490ff10fd8dfbe2f8f4,fa9b00defd37fc44fdf8fb98ff78faddfacbf4cefed7faf0fe9ff9f2f80afc9afe84fa4cfa11fd54fad5f53dfb48fab9fd7dfdc1fed3f9fafc95f9f9fa14fd06,f930fbddfe22037afcaffd8efa41f9b5fdc9fcd8fc6cfca401d7fe99f9ebfd4aff9fff66fbcbff2cfb27fc4cf83dfc97fd8dfa5cf716f997fccbfa37faecfc65,fb62fdb1f68afeddedb5faeafd5cff63fd55f705f9c8fc80f7fff8abf758fc26fb880202fd5e0153fd0ff5c9f3defdb3fdd6ff97f9d5f597fec1f746fb46f909,fe09fe76042efb2df43cf8d9fdd3f96efaabfd32f661fe8cfa46fcd1fc2bfe39fa1bfacdfcbafc15fe0df286fac5fc4efaa5fd36fd63f804f7fafaf8fa93fa23,fc55fde1fed1faedfe7efb1ef96e027afcadfa74f81ffe00fbe0004afe71fa7efd2afe29fae0fe3cfd9cfc78fa83fbbef71afbebfcf9ff41fbd1f908fc2efa4a,f865faadfacafa90fb0af8e8fa94fbfaf84efb59fb69fdf6fed5fc89fbcef9dafb2afb92fa69fc01f974fbfafc78fc93fd7cfcf6fb55fa11fca2fcdafc6efb11,f8c0f7fbf6dff9bdf495fe61f972fcd4f7c9f891fd84fb0ff93ef93efc3df90bf771fc2bfdd8f9d3faedfbe5f9adf543f400f845f927faddfa6ffcdaf7a3f9f2,fa5efcb4facafc4afe09fc19fae4fac5fcb9f587ff99fb47fa84f5bbf941fd13fba2f975fb54f9c7f7aff7d8fd6bfe0500c9f6cff7a1fc46fbecf8e5f934f81b,f7aafb29fca1fb71fdb3fbdcfb92fdf8fa47f96cfbe6fe20fd48f9bcfaf7ff75f838f958f81cf6dbf852fae3f9c9fb91fe72fba3fe4bf80afc3efa84fc3efc76,f79efaa6fed5f7d9f3b9f8c0fddffd39f8abfc10fbe8fc71f945fba2f971f821fa47fb7dfca5f95ef873fb1afa2bf8e6ffbcfbf2f70afa27fac9f9b0fa54fab9,f8fdfe40f86ff9a5fb9df825fb1df99dfb16fe3bf96cfc2ffb89fbf0fad4f958fb5cf908fdfbfbd1fd06fd41fbbdfd53fcb8f727ff00f714f67bf868fc2cf935,fba9fa5bf992f8daf917f845f71bfba4fcaffac1f7fcf5d5fd40fadbf86bfc09fb90faeaf954f5d9f997fd6bfd74fa33fd2afbb1fd93fa21fb06fbfcf8bbfb5d,fc44f933f9fbf973fc15fc87fc55fbbbf69cf97afc3afabefa9bfacefb9ffb46faaffb9ff7affa0ffc15fafbfc6afcbcfadcfe08fc40fa32fd81fb57f213fc8b,f682fb10f9fef71bfcf9f6f7f88cfc7af9a1fad1f97cfaf2fc10fc97f95af870febdfcd9f75df825f8c3fda8fa9afbeb0006f8c3fad1f7f1fdf3fd3cfaf9f87d,feb1fc73f848fec3fa73f9a9fb67f92af9cdf855fb87f91ef881f8a5fb78fd6af9ebfd6df880f79dfb5dfa81fc3ef9a6f809fd62fcfff9c0f952f845fafeffa7,fe11fafcfb1ffa9dfba8fb4af904fa04f7dcfde8fca5fb58fbaefaf9fcc8fa64fd85fb22fab8fd5efe09fd0bf8dbfae9fe68f962fc790491fa1cfcb2fc35fc0d,fc37f945f626f853fb5bfc84fba6f8d0f8fcfa34f96e005cfa82f09df92dfdecf9f8fc40fd8efce2fba1f8bcfb74f7c7fabbfc7cfbb5f9b3fc27f8dafa1ff973,fb04fa67fc76fb0cfb0cfb88f9c3faaaf6dbf86cfdb0f9f1f931f742f8cbf95af9eefa8cf79bfaaafe47f9f6f8a9fdb7fa0bf44eff31fb7cfae8f835fbb7f78c,faa9fda1fcbcf959fc5bfaa2f6e7f738fbf4fc59fb88fb4cfa45fe13fb11fc74fb16f82afb9af7c9fa91fb9ffdbefc46fde6f7fcfc2af92dfa77fe70f8aefb9f,f8c4f949fd85fc28f7acfa94fc25fa28fa1bfdf3fbf4fa8cfa37fc4ffaa5fd24fa77fb0df998f9fdfacef8e4fa22fc4afba1fbfdfe49f908fb0ffd5ff982f903,fb8cfa49f774faa1fcf6fcc0fa28f86cfe24f73efa0ffa70fb9af7c8fbc2f8cdfd06f762fd6bfb77fa60f976fe70fbcef603fb7efb51fb0ff9ccfbb6fab9f9b8,f59bf989fb46fc40f7eaf979f917fa39fc98fc76faa3fa46f992fbd5facafa1dfd9ffaabfafef7c3fa1bf9ddf6e5fa89faf5fe35fb85fbc1f8a6fd34fceffbe9,fdbcfe99fa20f715fd7efbcffaeefa09fc34fad5fa0bfcc3fc2ffed0fcd9fb06fc13fce7f7c6fc11f888f7b1f978f9a1f728fb39fa2ffb60fea1fac2fbc3fd89,f926f7cff9d3f8a4f91bf7bcfa9ff8baf772f77dfa8cfcc0fb7ffe61f530f737fbf4fba2fb49fba2fa79fca7fa64fb4ef72dfde1f9dbfeddfab9fbbff970f7dd,f929fbe3fd4ffc95fa12f8d6f897fc0afb69036bfb84fa4ff987fb3cfcc6f7e4fafcfb33faacfcaffd0efd67f962f90efc3bfbe0fcfaf96ffac4fba9028d00a9,fe72fb2af5abffb1f553fb2afcc9f4ddfafaf28af731fb8ffc4efd4afda7fd76ff33fb06fb4bfb77f89bfbc6fc02f8ecfa51fc8ffa98fd70fca9fde4f9eafaa0,fb48f8dbf903fcd7fbb5f92bfad7f9d3fab5fe8bfaf8faedfc78fa57fce1fb23fcb2fce5fd48fc4efd58fb8df9c6fcacfddffb4cfdc7fd0aff71fda0f5a1f9de,f8f0fcdbf6c0f99cfe01fc2bfd2cf983fbecfc02fa08f89af9b3fa0efc8bfac6f8d1fb51fd10fcd3f938fdeafae0fb45fafdfb8bfaa4fa4ef70cfe41fa73fa70,fdcffca0fc10fdc9f7effd0efa08f8c7fb67fc9af90efc8af8a1fde1fa8ef99cfcf4fb92f7a8f504f5acf845f825fde8fd52f7c3fa5cfcbefc18fbc1fbd6fbf2,f996fac7fb1ff62afc1ffceaf9fcf92cfadffc1ff9a7f9c5facaf21efa44fb9ff862fcb1fa33fddbfd00fba0fd9bfb8ff4edfa17f8f3f7ddfd39fe20fa73f903,fdd6f601f8b6f8040050fb6bf7f9f808ff04f6b6f9befba6fb22fa01fc6df825f997fcc9f8bef9b0f7acfca4fa1ff8f9fb19fb2af797f8effa45f7a3fd10f68e,fdacfc5af940f924fd6afa90fc5dfaa8f89af788f92dfa7dfa72fd4dfb45fbcaf61efabcf960f94cfe23fbe9fc80f984f92bf85cfdacfbedfda4fafcfdbaf50c,fbc8fcebf669f875ff0ffa0ff985fc8bf789fb3afd82fb7bf814f942fa3afbf1fc50005dfe75fd48fb57f944fce9fd23f969f8b4fe1dfa88f9c8fe0bf991f96e,fd9ffa78f956fa00f8bafa1df930ff2ef81af64ffc4efc37fae5fa5df7c0fa48fa7bfeb8fc4df7f3fd3ffdd7fbb4fcc8fb40fa08f7d2ffd8f730f9a2f984fa52,fb2ff955fc0ef79af966f8a6f917fa00fc26f77ffc78f7b1fa97fcddf97ffcadffaafa64fd39fdb1f67afa70fb99fd8afb61fda7f86afc59f896faa9fa48fb71,fe14fce5f883fd71f9b3fbf9faa5fb6ffa6afacafbf1faa1fb46f569fc63fa30fc09fcd6fa0dfb4ffb2afa69fd1ff75bfb39fc68f9c7fe3dfaabf795fc4bfb44,fa24fb14fd8cfdf7fa1efd6cfdeefdb2fd8ef9c5fd2efc18fa83fb34fb7efdd7fd91fc69f7cffaf4fd25f91df919fdc6f970fcb80011f8bafafafdf1f9b8fe48,feb1fdea007dfae300b3013900d0fe26fbabfc15f4effac2ff64fef6014df964feb0068cf838f3a8f98af96cfa98f4ddfc6dfe81fb67f52a049a0050fa04f68c,02b9fe7ef857fe2ffbae04eafce3fa59f791051bfa1ff73a0055f4690293fadc0274fdf20447fd42fc4c048a0095036dfccf039cf915f36dfff205a1fd8cfe12,ff4aff5201eff89f05e1f9def91d00b5090f0106fb05ffb7fb390178f8d9fe5a05ebf9990108ff2b01b203800b11fbb1ffb402b1fc84039efabd0474fcbdfe6c,06c10082fc93018f00d3005cfd40feaf011cf362fbd00423fa57fea50526f921fc1001bbfaf1fdbafb44fca203fb02ac073b0179f8c2f9e0ff05fd31f966fe35,01cafde8f79bfb88fe4700e2f2ad014201a5028afd33f9e3ff5802b30536fad30762f836fc16ee9bff5ef56dfad2f94ff9adfe12fc21feaffec000affb9e012d,feb702e1f852fe49042e00bbfa1cf98703e101a60102ffe2fbf7003405f4f84afa8a025cfb72f7e3fa15fcf3013b01c201f9fd6dfeb6fb73030affed013bfc64,fc6dfefcf7cbf891026cf989ff05f952f80b04e4067f0106fa54017c00edff13005602af00ce00f8fe53002cfda7fe3df9c1010b00a6fdd70211fe000038fb34,ff68068a0206ff40012d02d0f8da089f022df9ee03c9fef204cfff170514f6f0fd8402b90307fd38fc0c008afa4ffbcc04a5f471fe6cf78402520311033c04d3,041908c1103001d7096ffda200880dc0fe80fd28119a005503e80660fe8c03d7028302dd03660dd8076d0743fefd0e070ac4083d099a0c04ff26ffd2ffde02fc,0216071e0557084e01d105b813f409d906c3ffb5072afd140348044001df033307130b490aac013503ae07b605db04f21158069e05cf06720885fef6005603c2,07dd01a402a8095ff6c20af00647044f05f1051e05e503ad0d3005850ad9082909e91065022a0a66049309e8061501e3026ef492053300380828ef64fd1a0f08,fff903f90ec407230c7b06ad0b1e034a09a20c7d0f510d3c175909ba03f200880c0a065e01bfffbb0a9d0a5dff7c0f0b012b086409950d48086d051d03a40bdb,01f70decfad005f7098e04a60a4711d80efb115711050ddcff690e82082c02db0aac07f50b090486f7aa059807b20bef122b05ca077f03370774048a07de021c,0c4e030206400cd40b41088bf99a0928070402d4048d03c80035fef4ffa30996f92801b005270212fdde08ba09ee0abd035a0a1c06c50ebef71f026afa09029e,0a4ffffe085900070a700e5d04a5fd54047a04c90c50065f078e002a0c9903f3032306ed1855044f03410a5a064602870bdf00f304ff0ae7fee0117b02c907ae,0cdd041bfe82079803de0ded07eb08eeffa30a0807820d26f2bcf5ac017d001f0a6f02a6045909690859116b092d11ac077f07ce02d4023712340f4909b908a2,0d560a6305b10c3ff91a08f40b080534032204a80081085f061d08eefe4d07fffdcc0491103005940c24090304f602c600ed0a99ff2209e507490a3600e71028,fe5e0c3d0d8e024c017e095509c906fb0592015006d00c2dfe6f09ecfd31035e060402f109a500a409cb04610aa503860c830800020c0c59ff0d107e035906f4,0c03041904c0060f01ed04fdff710d6c04ed07190429fe96073d069508d503640b64041904c10018fe670c080175005ffdc608010b8a03ad0b3302c108270bf1,0acc0df1f95f0cf40575059f13ae076e025f0348078b02360d2b0868ffcf071109dd067e08b406ce0ac70d9702c3f97cfbc5122b064d0b69076ffef0fdfa030f,0046061f047e0758008909ea0cc00b9402c202c506d0085f0465094effb5fa8903c112680932028305f906ec03ba07e00ab30c4401d408a609c80a1c0395013a,094108fef77f04ff012c066a0c0f034f06dd075b083606c20b4c0c400e1e0172057b04e309fb078a081505270000177b010f0c51043013b903d015ab0b1f026e,0b0f08ab073a03490666fdb507fd08e1045902f500dd04140fb00b9809b80548ffaa05610bcdfff0f81001f5071cf4f90535071b0aebff5d0566039c07f0079f,ffb1fc44febf043002df14c3fa3c0b16087efe2605f9035510d703f807cf0db1ffbefe9802771044094606980907fdec097b0b16fe6a10ef0bf711100901085b,006700820061ffb3f0ac0053ff06ff78ff2cfedffeb7fed4fed1ff59fed2fed1feb4fed1ff08ff56ff11fee8fee1ff4dff3efef7fec4feadfeb2fec6ff6dff12,fef8ff59feeeff04ff12fedfff14fedcfec2ff45ff50fef8fef9fedbff50fef8ff3afed8ff37ff62fefcfeeaff23fec2ff2dfefaff06ff59ff39ffffff21fee2,fed7fef4ff1dfeecfef3fed0ff15fedfff2ffea9fedbfe88ff43fea8ff20fec8ff38ff0bff10feb5fee3ffcefffc004d0010f2f10190ff2dff59ff4bfeeaff04,ff00ff3cff32feb4fecafea1fedcff27ff69ff5aff6fff42fefbff1bfefdfedbfeacfedcfedfff41ff07ff06ff4efed1fed2ff0bfebdfefafea8fe9aff03ff45,fee0ff30fee2ff4afee6ff01fedbff26ff45fedfff1afed3fea1fee6feddff0bfef7ff67ffaeff14fef9fef6fec9ff23ff08ff31feb4fedafeeaff0dfea1fedf,fe8afedafee9ff5dfebbff51feeaff25fea9fee4ff45ff6cffa2ff54f05e00bffef9ff52ff46ff1afef4ff1eff7dff12fea6feddfe91febdfee7ff1eff62ff54,ff4dfed7ff35ff01fec9fea7fee6feb3fef8fee1febcff0ffebffea9febdfe98fec5fe95febafed8fed5feb7fed9fed2fedefea0feb9fe91fee9ff1afeaffefe,fe92fe8dfeb4fe9dfed3febdff42febafe77ff03fefafeddfed5ff27ff00fe9dfe99feaafeaefeb3fecbfe95fea6fedffeccfeaeff27feb1ff34fea1fea90000,17a10304066f0879eb2c0f3afe3c08b8046e14190b710e0708c5f95809edff33096c0a1f12d107740cc30a130d0712c309aa0924ffb90c6ef7c2fe991101127e,0a0d073902d5fd950ce80f5de2cee5540b0602f309df15fe0e6e09b807ad059612460a240837112c08140cf30ce805b008c6113e0e97fc39067610bd087f1759,f2e50a830e12dbbf07680eb41514f3d716ed0c9c08e3121c063ef9d90a50ff9d0aa30e93fbb80c7d11c311d906c4074002c50370037808e702ec0a5f066b164e,00920fd6083303aa0fbd0bb40de31072164d02bb16d60f9e0cf50516e84b15a30895fd4a123af5d804c00c49fda20efa0c6618b60f2807b10880fe920d3a0957,ff8602650bde067c0afb04f1082e0222037e0554017e0d2afd0709f0011005c2fe7d0157050b02bc02de02b3ff2509db04970567ff4e032cfbe307f6033809f2,01f301360dbc05d2019d05ad0672098e023efe6606a5ffe8f45607560149045f02a600b405a4000702c104070590084104f002dc01cd059cf5500277f5480431,0c0ffb05f6f605cb0698022b08260ae803020052001406620883fd8303bbf801fc8608f50645ff50fdf40a26097102dd0bb601b50c640b65f747f9760bb003da,05f6ffd8071905950258060d0158073001990c5f044f04ec0c4e024a07d8078f06b0016cfc7d0430f99d09b000b808d0091e0ac903850b170cd1027bfc191445,00d0098f02c005f506e20dd6018cf96c07a3053a0c40031dfc8f040c0907089d040901fe03abfd9e00750688ff7bfb17091ff7bdffdffddd025507d80409f8bc,07a906dd0cdb0ee200900984fbbb001202a8041af663087b042f0b45080f01f0063201a104fa05690d9f08a1025603bff9bb0b8609b10d9b08db052cfffefab8,02ec059f0608029003c3047b0487ff9d059a01b6076f096a0a69ff9a014205450c3206ce01ba0dde052d01fb01b1fecd0c130a6b032c04e40c19087d092d0bac,0346ff3d00d508d105e6ffbaf4c4fd03023402860942059302120b9006b50005058e0bc3fe1508ce0550ffff0380050904e40eaa049b07f40a1205df055e09c3,ff840055003effb9efce0253fe75ffedfe38fe74fe85fe7ffe9afee3fe33fe23fe63fe20feb6ff5dfe71fe94febcfef6ff31fe77fe33fe6ffe3bfec0fefbfec5,fe29feeafebbfe7dfebcfebaff24fe8bfe60fe90fe91fee9fef9fe86ff80fe60feb8fe92ff91ff25ff1dfe77feedfea6feeefed5fea4ff1fff160017fe54fe90,fe34fe7efe81fe2ffe62fe6bfec1fe58ff20fe1ffe5afe1ffe8efe2cfe9ffed4fe9cfec9fec8fe42feb3ffcfffd8003cffe9efc803a2fed3ffa8fec4fe6cfe9c,fe9cfef4fec3fe6efe7dfe77fe7afee2ff78feecff06ff15fed9ff0afec2fe57fe59fe8bfeccfef3ff1efe7efef5fe98fe5ffe9cfe93feddfe58fe61fea0fee4,feb8ff47fe95ff42feb2fed4feb1fefdfef5fec5fe9ffeabfe95fe89fe84fe73fed6ff38008ffe8dfeeffe63fea4febafe87fecefe43feccfe58ff0dfe4efe90,fe36fe93fe57ff15fe94ff53fed5ff08fe5cfecaffa9ffca000cffa5ee1601caff0effc9ff3dff18fecdfeeeff79ff64fe85fe92fe60fe91ff17ff36fed1feea,ff42fed0ff4efed8fe7dfe57fe93fea7fefbfeebfea6fef6fe94fee2feecfe7afee0fea5fe52feb7ff12feb6fedefe8ffee3fed5fee9fe41fed1ff20fe5dfee3,fea1feb4fe7efe71fecffec7ff66ffbdff47ff12fee9fec3fec8fee2ff20fe1efe9afe94feb0fe6efe9cfe43fee6fea3ff6efe8bff32feb6fefafe77fec80000,