memory_initialization_radix = 16;
memory_initialization_vector=
00000000000000000000000000000000ffb4005f049b04d00035fd7d057300b000000000000000000000000000000000fc4006e201a3004207a7fff406970496,fa42f9cbf90f056f115eeef2f96a0bb107caf5bf05daff070539033efa8507a809e10041fea10768fe74fb62fedd0a3afcbd05741075f8c8fe5b045e0a2002f4,02bf0730f73afd8afc1bfb98fc1bfa71024904cb060802a20075fd5304c3fd61fd74088a0257057001850391fd54fdaa0824073407b1fc0cfd3c010afcb30367,031b032f012e010611b0094df2b9fdc0f6e8001c05850463fa09fe5a055d08c00536fd50f9c80523f5bf03af093cff80fca204a80650060dfe9306e5fd2dff05,056203dffaa800aa03f3044bfd1802a703b8fc76023603b9ff6f031b0677fe030490fc3a0510067f026903010540fa24fe39021200cffd3c043602bd09edf865,01650416039000cb019905e70316fee00327fe3d0314050f06cc03720533062c03410150ffc10911ff52fbec0833ff47020c0c3dff26ff3f020d0612fcbc07d6,00fbff6402ec012409ad052005d405900606098304bdffd0078b0680063b0441033103430522031d00a400e2ff750553fd12030e07fa02f9032c019202cdffe8,028103730405015eff8bfec1fb5005ce062c02e60373058b075d0746fbed022d043f070e02adfd98083104bd019cf7d0fd370764fe4c03da0a18042bff37f9e4,058d01c40d051bf3007312d30c200ddf044004ab149b0b8a06370071032902a8117b054016b70a63156ef9cffaaf08b61440f677148bfa9510cf2225fecb04d7,fa43048302bbff9b0bcc0c42fda3fd6407550bf008e70bac044e0fc90224106a0694fa7910100a83115b14cd0faa00c81712fc3106d803d511970b9d04f10844,0e69078c07470bfa01f312a502e6080d023712b81173020007cc093d13c2097e0a050bc20b7d07db06af06460b0d0c260deafc9ffd800ea50436fd0cf5f70c8b,13390db30ade09b411ae0df60c2704c90e7e0cb018f20147f6210d98046409c0138a0ff30bcc07120a3d093905840f3310f30e9002370cc812850eb911100cd4,08be183c025c0f9bf7ccf7cdf47815020277fe4f0b080e590a2a081c0955f8a50f700946062d0a4501db0d300c35025917b40f970b7e08e2090ffc290ba51129,0ac6075bf80006bf02000485fd7b0ab50c0707031499009cfce3fe75039d12260f940c6cfd8706500d3b158d0fe9007e0dd7137806c012dc168305f606530d91,1541073504d1037304c0f89907d50fdc0eb3fd7d0ad302e50c100f8afddc107ff7b70dc4102603eafe65fcd4069d0d150710062905ea01a6097504950ec501da,048510c80ad80fcc0476ff2600e505c0fd7d130512ec057b095f0b320114070e0d510f62065402e113340980fee0015210e7108c028a00e404d203d00219fd98,0f8c15670d2b137d0bd21100135d0f47113e0be80baf0b400522177409e407ee16df010308f80a4c0cfb04cc11bc026e0c63fe1c0e1c1219098312ed1daf0cc3,142612d015aa03d40690098b038207ebfcc00c5f10ad08db03c50e2503cc097d035106ed1de8f467133e13e510bc10f903af18fb10df071d14d2fdb70a1619ca,05860e5007d50c470deb02e602d208ff145e00dc05890c0f1b6ef74b08dd055a0b3900390c1d0e8b00dc08960fca079813070fdd10f1169d14920c7312740a59,0a6c054c046317f314011b1b0bc110010789fe4e1cec0d5f053b094b0522ff2009aa073210760b0e0f14ff0e081601b10aab12830d1b0346152a09ec113b03aa,0b0213ca073606ad11f9214a07240062126f0e4d1158094b0e7809d1162d16980fb208ea0cb509a412480f5c0d85002d02a30f8e0e8d16250d9cfd7905af0913,096a0253ff2a10891c7410730595159806d3125307360b450d2e0854119e15490d8b0b5703ac19b515fd0beb141c0bc1fcf303381af408190a5c07110b0f0d30,fd9a1a1206320f0306e71df9081810b3fee902870f22f63601ef123a01bc09210c671165fd21094a1613199e0bc10f0018da057210f610dd0dd20fb01a620aec,0ba404cf17b11064100b0e9501d70e5b10490cd409ab18bb0dde04210a67039e0cbf0ac2055a085607a50a0803840ce8150304660da707a802dc0fd41536f9aa,00fa070304f1fe450c5313e20c7710300e21129612b7125910f1115a12a50c410964065706511696f6a8fdca1c2e105c0fb3fd10091a1328f9ee031c05d40800,0a5c05340bce0cf20b3a14880a38150e0c4b04270de00be7058812550d5c104a00920c4612a90b7c028f00bb099f043d063e043607380c9514e9098704fc0db8,06a0fbe608f709be09b8067c0a98083c0f6f126e0cc71737094609b00e1415e0149b147204fe03d8fdf907e3099708620ebf0cc30b0616d4083a10a6137e07c9,0b8cf5900fc812a213ce14df151f03a90f820a5f16d816761a7afbf5f63c032319a008df16fb06cd05b913b00a1906ca110808ef10a610e6128106cd04dc0682,067e135a0cb617ed0ecd052f063a0a77052a123e0ee0118e04180cba087c15810d7e0e26fa6909b7f4dc1076137e09ff0e1b14b908e202770274f94711dd0768,0b7810041a260c8e17d1103afee506220c4afb0f1a070125fe0e07e60c260fc201d30c7d0ac802150e960ff6156502f014270e87045f0c5f12080fbc0f2c0932,0a490c49178010e818bf115002e91475058f019409d90fcd13ca145afe33133c15820a1e08c60fff096b167200ce176b0b8508b6097b07ef14460fe817ba08e8,132e185a068af93906cd04cb12d5fe79164107640f5a0bc1ff58ffbd1b570b1519a505970be90dda039c0ad3169d0df1161706730ea31df00a670c5f12480f7e,0a2715e7fad812a012e3ee91fb51f8201b2e0ca801fe145b077214c9fa8ffb30f048ff0cfb72ef011258fde00f20174b0fd406890bdd0726134cefc8f6ed0ed9,fc89e5a416b1f82706e11156081e0fe41f2c03e509c80f1e00de0284fcb520f2ffc201f80a1aee86171ff7bd1b170b700071ffc515abf18412fbfc1cfd9dfb15,1a6a0c1602700d8fff61ea67fcdf00ef01f801c909ba0c97117310091a15f7a8f5e2f367fd28f9c9131af8c110220d6d1133080c05ad07b20e9cfa0a000b032e,0f94f50e106a091e03320958005b09b316e1fb1e05bd053d026e032214e0ff910808004914cffa4a02bdf96005a1070c0922fc4704fa0ab1051ff45e067e0765,098d09aa05b6091df27aff390d20ee73f78b0a6104a7058bff8a0c01ffec070d019c127707e50a51069b0f4b053a0c4cf7d81298e8e416a0fc4708a314940d9f,f6af03d505c8fbd3fb230efc0511013016d5fe881c2410be0b2d02440ccbf97607ec08e90cba0888111d04de048009481463f9ee058609fafe3005c4029bf318,037405c70de20dd10702f15c04d5f9cefd52026aff0b146df7df14e7f0400a1203d6f1f903fb0dc8f75b07c4f526f4170891f5b00bea007df6dd006dfa33fb61,088504c708e1ed06017f1564fedff9aa0c26feddf94317e20977f4b2ff691163134b110c14951d82ffdafa3ff6aa09a10d07f403f8e21f1103780cf307190736,026427190b5104df1840fe200907ff8af0660302ee82124d1117148908e9049f0db816c6050d01bff286ffbe1204fd710cfff832f47d0ddb155b0f69029e02d0,0dddfe540d19f7960495f16f17d91391fa0e0ead0cdff757132be610fe4a04aff7370ad8f27bf80909fc1534f385f399016004731350fa7b0b8a0477ee320737,03881235f6e3fe4418a7fed0fd31fd0018ca012716cb1b7b10bbfc7b0bd7012d0872eb511290fb05f52a03991624124c0a700c47f05a0845f6951eaf047c1839,038f060100150245103e047002f711f31136123b0ed8050bed001a1803bc002ff6ca002e04c2f27a00c30c6efb5d0bae11ebec2bf17b0e33160ff3f9f938e4f8,12d3fdda082e12c1057e0bb2ded401a4e97e01a20a0c096505f5054300fef8340c4a0a99f03903a8ed77022b13d1056c181c021ffdde007212cf11b007950768,0491f74a0d1603ea01f010ba00850336f6821e9d0bb20cb109820a44ebde0f12147400b0128005810ae10d2b0ad400e218990ebf0c901188176eee2ff660f874,ed23fd0f182110c50642023c03d211150c4a064405080c640e081363f6240139f6e7145cf9b813c8fdf1029e063905e21377046af2e1ed3f0ec209eb04bc0205,f4ef035d0357110511321035e5b6f6eaf7be1421066704b11e5c0c3604d4f8e00591fb4d06ff0c6601ca01130b0c046604630fc90f2dff7a01e913d1041511b2,1640edbf0fdc013ffdf90306fc0809bf170208b31be8f54f147b0ccf0df2fa6a051bfaa4f3edf46d13a9012b09d4f7160a2210f1fc2204b8033cf5e7079efed6,058203ce0a6a10f4f5a5fff6facf065c05bbfa270a4703acfc840871041e09640699f8fa040306cefada0651054407c50a6b06a409e80dd709bd01191deb109f,06310f360ada09270c0d078cefda15a0018a0de70cbafe0af7f3eabb0f570da50646fdce182602fefaa202aaf9bd15eb1410fd16fba4047fff61093af67ef9f9,f85d02ed059504fdfc4f087e02af05b8faad13cd0c341023fdb611411bc101c0ff1bf425fb01fc7c043416a316b7023108240e70fd92e6b2fbe40cc6130408b5,fc73fb420e1a0b0f119502dbfdb1f52818ab03d60b06eca7fd99f9ba074e09e10858074e007ef6bf143eff50116e017bfddbfe6408480c8e03f304c6f47510c7,0541f5ebf564f9b40890f60d0192f1c1f12b09630e2505a9fb17085b0ba2140a15c30687f580fbc915abfda4febefd7dec4405c00dfc0847f54011e01d8e0331,0d9cf5e711750f1011ba14170ea206d9f35207661088fea01d85e43ef61318cc0dda04f30d5bec36f149f2d50eeeef970c70149c0f7316fb07690337020afdcd,0f25fddafe6608e104cd056d02cafd810933182114890725fc9cf253f4420a1a099cfcaa040309530f8508f5fb87f4280ef512390233fda70ffef7c30a6911b2,fcf20bad0eef17ac18be0e700886ef21f88f10c7fd53e8b80c22094efec20d8dfe1a06ba070a05eaf9330e80f41802f804870af2ff891b0a190f05ed0cbb0a10,0c61044819900a48f490009b1918ff9bffe900d5f200ff8410a1041fe6010b5218f115eb133b05fb0d5d094e105810b9ea62137cf4df0e8202cbf4f9fd900713,ffc311480efa18d9120a0f110546fd37131f03180cc7f2edf965f91beee804db0f88e6410b851455ef7f124313221193073006200ae3f8af0ed4207df807057f,f931057cf985159afdd0e57418db00befc9409401cd518560cfe00a00d4ce64f1169fbcd019e153707c5181ef66cfdb7f1b01943f61e068cf29e00b808b50145,0300106e080112fcee0cfdcf00880adefe42f8c305430e64fa44fc8ffa3b144a144a02de110a0c1703cffd6dfe8efea9149703c30f3c01aa13a51b690496eb55,0d12150c08810fb21a720272ffd1015a017609d90a2904670ea9fea0122ae9a0ffff0fef1383027e00c7064b1af0ff2b06a608e00e54f6ab16910567ec5a00d0,1797fd4a0d000f69fefb156b0907f9290164e6590c1c028012750afce738fb76fa5902000b2eff1cfb47fcbefc84e8ea09e41333076215130f4619110b43fee0,00f5093e09c300860de50d8c02530f7a09e31106feef11eb07a306aa15fcf64d095ffc6809ab002c0ce8f84f0b390f8f1268d77708b7020615bf12dc17b90bf7,0ba70ea6052df42901f904d3fda204940ac2ff3409c003a6fd20ffc90063003d0d14f9c1045e015a067403e402eff3bcfe8b024d0c06fbf2fead07b5080306a0,fe1a05ab03a901bb007af6e40137008cf63800d7f8420bdefc46fecdf1ba064f05cc0082fc6a006207c507f805010968fbabff81fa151409025c0034faf207ed,06a1f238069cff18ef3efe7303770923f55f0e6aff5701c306500eef0d2705d30514ff1ffb3309ca047400beff330ff6ffcffb5809b5f2aa158a04a2046df896,0945fcf003d40a76ff7206c9fff304a800c20ce9f8b5f1d40d4ffe2bf468f1fb0501efce078ce9110f0d06e9febc027dfffdfd0bfaf0fac204b6093d0555fedd,0d1df407f68ffa24fc2f07cffc26fff8fc6df62407080d01f87d060f0e050675ff13fdaffdd40e2af92f0faffe60fe8901b807670b8f015b090afe6ffecafc54,ffddfdedf92b0aa1067404810c21084afe220629fda8f7b8119cf42aff0d010200cd0f180ac708dbfa9ff80e023dfaf9012f0be800cafe54063f09bbfa8405ed,0300ffaa10c6fdcf080e10a90ae50a110618ffbe011d09f5161b0af7fb89fb02033b0223f5c7fff7f98f00c6055bfb0403b7f69c117a05e7ffb1f0cc02e90726,0341021503a8fc7af2ee069c0a7a027f079905fdffd60b740a99fad9f9d610c30ef2faf2050e027f04880c1bfc5807efff61ff55f3cafd54ff8603b7f80000b7,07e004a2ff9301de0bb305750216017a038804640bd8fe5600a7fbe2fb0b01d8033ffe5f0009fd550182006b002805e10379ff490284024d0cae045b01b70171,fd580321fc6303220237088904bb0228f8830205036f09caff8307b800ebfefc02bffbb507dcfddc037f03d4081e0bd1fbc10b5cfd87072cfb0cff2a07490203,002b05c9fd1300430209fb7307fe02500a29fb840647031bfd68ffaffe470133055704d00a8a0666ff8003640e7f03b3ffd6080f02dd000709660b5e02fd0348,01cd026800aa065afe72fe38062e03ad09bff86f090602acfaa2ffb801a00756ffb101e3008b0119013b0b19004c02d611ddfad50550097802340198018afe20,0e0cf4b10097ff21feb50630fcba0c7e0a6f0095fea90621fd9d0024fcdefe6bffc10816fd49fe5900520004007303a601820c6a046e027fffe702a5fb7000ac,1073014e01990419fe4c028b072304560761ff050384043304fe073505c0fe57016bff9f016e023efc26fb1406f1ff1d02acfd8a0034014107da02fd066b0107,05a90772052dfd5f002507300a3a0b0c035e001d02310861fa45023f0c6408e403c1fd25f83aff48fe44ff0108d60122ff4002d00609fe6c01f2fe3afe23fe56,023403da005f0820031bffdb06740206002100e5fefdffcb09bafbf0ff88fe6a056d025a08ce0379fdcb02e005d9039b033100e0054c0779ffd304800e77fc2a,00bf0919f82ef7fd004002eb071d03df036eff6004a102230432fe4c05ca040efe62fb540a17045503faff780868024a035b0194073a0466fed804ee0206fd1e,047403a404f5fd42fed7088cfc72069affed095efe99040c085800d4065702de067a01dafce6fc72ff630644042dfe8001e906200190fd68fc430686034e03ec,070003befebafd1c0819feac01f1fbb306daffbafd7903870553020ffce50681fe5806f2fcaa0009fdcd0161002cff8f06f6fe53027f0fa7fe7e05b0045a053c,053c0f060007029c077501840166fc18091501fffe0c03980239018d060fffb506d1ff93fd4c0225010600d505290b18fe6cfcd70594fe5a070fffda00090950,00abffe501ec087f05590664fab20699029cfa0afdab02fa09a3fd09049e05770a5f0273053701b300adfd5103defdaefec4fd4afd14ffb602a001f90cb60086,03ab03acfa1dff4d043103ef016cfd5d0567f91b07fcffd20086013402b705580192fe10ff6602da0145fe2a01dd003302ecffe809df028b04b20557014c00cb,fe57023b080a062e0cba037c0360ff660ffafe0409b2fdc4f8d7ffb60a26076402e1ff8b0124031c049e01cb03f8fed601ecfc18046c03300a1003d1f996ff05,0666ffd3fdd4fd6005e40170023f011706c8014a009c0441f89b002a06c3fe2cfba7031d04340220ff680b92050efe2efe0205260595020aff88002c02720b43,00000000000000000000000000000053ffecfff6004effeafff90054000afffc0000000000000000000000000000ff62fff50000ff77fffefffcff6cffe2fffe,00000000000000000000000000000000000000000000000000000000000000000000000000000000000000000000000000000000000000000000000000000000,00000000000000000000000000000000000000000000000000000000000000000000000000000000000000000000000000000000000000000000000000000000,00000000000000000000000000000000000000000000000000000000000000000000000000000000000000000000000000000000000000000000000000000000,00000000000000000000000000000000000000000000000000000000000000000000000000000000000000000000000000000000000000000000000000000000,00000000000000000000000000000000000000000000000000000000000000000000000000000000000000000000000000000000000000000000000000000000,00000000000000000000000000000000000000000000000000000000000000000000000000000000000000000000000000000000000000000000000000000000,00000000000000000000000000000000000000000000000000000000000000000000000000000000000000000000000000000000000000000000000000000000,f995fd2ef6370172fe3efb6fff1efd370cbf03c9001907f0fbe6019afd7d0136015afc1a01510059fafe0527031afeeffdc4feb2fc5502cbfc48fc1401f30125,f892f9f7fbd205bbffc506420316031c02670390fda60127fd3503ecffd2fdcd049b02560159036201a5ffbf05860051fcdbfb1c010bfd04fd20fb0bfeb30834,02f4069cffb8013a055efffef9dd02ec0089fd2601cb020a01befe1efe4affa5fec101200410fe68fdff035e05ec04e6faa801c70106fce6fcda027d07e7f67d,fff2fcc30233ff78017c00a2039dfd75fd5bfcef015d0112007b051e001f0271f997fa560483fb980168fc03014efec2ff3cfd6304c4feb5ffa5079b0206fa10,060908de04a90990fe29035f07f2fe62015006c0002200a8f9d7fdb0018c0c4d18050c64fcdefda7fc0b05b10055ff240ba5009c006302c60b3105fb0b4a0024,0ce60564031dfa45fbb9042f026800f104b00e0302cf023c0a1a0423010efdd0019903aa03a4fd6e06e70c1505310035fe88001cfa540435f8310cbf01cb1267,0622fdc5013709c8033a047602e415fd008902dc07de0a57ff5904e3f87e0a7606bbfff1fd31067d0ac500e9024cff74034f14ab090f10c707fd071df9ef03ce,ff66fa6bfa9702ce09fb058a007f0446006b0227fe0cfb6a02db0eba0727015d04e50901fdddfc46ff3bfc5601d9fd91043ffeebfb7a005c0811fc8605331329,056d06bc04d005e6fb16fa3a0588046a061f052b0033f76af8a3fd8607010ee1041c05e500e507bf018103f5068707cafed6fafe0598fb5614bcff49037404e1,0599f95af4ce00d81ab2fe9ef8cf0040fcfb091205aa0e2efe6a0869010f08e305ea054000ee09d110fc09af06f8fb36fb0d043a004100e2003afeeffcb8fc37,034bfd27008c0c840997ff04029502100afb0328f65efb8c02390668f9cdffed01e30815f92a0c9106c801c504b5066a00160ab004d706effe9b00700a7802fe,05f80663fcc6ffecf6a3fb7d05750c90ff57ff60fe5b16f0f6cf019606f4014d0044fe7ffe7800460cf5051c06ea06190dda0f640672fb890640ff95fb6a079c,0000000000000000000000000000007dffca001800820005ffd40097ffecffe00000000000000000000000000000fe4effc0fff9ff0effcdffffff01001dfffe,00000000000000000000000000000000000000000000000000000000000000000000000000000000000000000000000000000000000000000000000000000000,00000000000000000000000000000000000000000000000000000000000000000000000000000000000000000000000000000000000000000000000000000000,00000000000000000000000000000000000000000000000000000000000000000000000000000000000000000000000000000000000000000000000000000000,00000000000000000000000000000000000000000000000000000000000000000000000000000000000000000000000000000000000000000000000000000000,00000000000000000000000000000000000000000000000000000000000000000000000000000000000000000000000000000000000000000000000000000000,00000000000000000000000000000000000000000000000000000000000000000000000000000000000000000000000000000000000000000000000000000000,00000000000000000000000000000000000000000000000000000000000000000000000000000000000000000000000000000000000000000000000000000000,