memory_initialization_radix = 16;
memory_initialization_vector=
0000000000000000000000000000000000ae00510007004d00040012000a06e10000000000000000000000000000000009f5fc8bf6f207a1004400a9028905d9,02e7fe18ffb7fe60060601bf0127026c052a0a9002f401ccf8ccfdfd08a40b5c03c6ffec01270036fee501ac00b6fe2f0ef106ab0876fcfdfaf700f4fc2c052e,0516fcae0438ffa8ffbe02720090f984fe7500cc037f03b9fed601a7feaa0be5067cfbe3ffba02b7007f06bf0028fdceffa2ff3c078b032500f403ee01480558,00f2005b027dfe9a0580fe26009a026700eefdc304d3012603c10529050b02bb0259ff710239fe2901a20474016d0305fe95fffd025001f6ffb1009cfeb604e7,052aff43030205e3012c071e0543012803a0034407ff0232054b09c8063704d101a704b20392ff5d04f8ff6100cb01a104fb030807f20702fbe7078a0383037f,00a5071dff820508036cff2efee0035700e90060fde605b503af05430173039101c603220532045f02e3044904e404960351fe15016bff5c04e0045b029a04d4,042301510640006c0220fedefc91049401ed0547041a01a800a10304065008af070604e002bf003301e70177011901190257ffdd04d1fef3034c0365020f0433,fd5e0091038cff0b039303c8002000d703da00d70324032d025102010914042a023d02cdff5003a805b905d805a6032b0037034bfeed017a07f5fe1604ab0338,f075fc2808160058056c082506de035b03e30912046f09f2022509810460059d012a036801a9103702560a3507bd0c7e099f0d3004d70244075104ee04d107da,028907e3032c0915056805e0027206ad08e2fff0022d0d1c066706ba0426069f01ac02e4046c0926098201a904b1025f0699082f0a65fccffa2501620eb605f7,063e09b904f10bde091203ad00dd05f507e30e340e5108f204b406000bfd03110372063c09670158040dfebc00bd073702f20a7501c40fe7ff4b0bc105ce0c2f,04e60326ffd7097104d9085a01f3032c0692018e04fe04f303e000d904890cfd0579013a093e046e04e7016a02c00151083200d1055a05850ba6011009140534,062a062b01920840057f014907170834044f075e12d807f702d80640041806f401a001be0792055900170a050737078f0166fd00048a039c0386082c042a09e1,00acfe5305da095307f1fa08084006d0094b06b306880218043f01ee071b02050d620882002a091a045303ae06d305c907b50a4d0778ffb50bde07660a350068,085104c50bfb00e8ffcd00d803a3f8e8014a0386066403a301f40946fe68050808a30896050c085501de004102cd081d04c10155070803cb061a062506470b92,053100fc05db051e01ef087207740e4d0bf8032b012405da088808210a7401f2009706580aed02880d0a016c084f06fb0416060f047a049d06f904f0ffb50700,0e16077b0a90081e09c408100c3a1009119b0de9090205a20c1611a50b7b0494053a09b8089f0a180d8507c60aa30ae6058d0b2a0eb6fc6d0a7a0ef2147903a4,05f307ed148a0a36125c08fbfe7e112207aa1185134e084a099f06ba10680b3e101c118c02810ea2079d0ac0fd68fe560a161228004313eb06ad11bd0f7716bc,0fe407170ab30abe07cf042010f710bb0d620c0b0adf091a0bfb0e5801c80a77124a091f0a4b0a5a14d109980f1614530c6f08ea0bd71751077c01cd07bd0e69,08fcfb9b04ac12c1f6c40a1401ac0fca0e7108c1016ff95b0944059109b30d3a01d3081508b60b270f3107a40b4e0ba40a79ff2f0e530d761db714f50dfc10a5,12a214f00a1cfa650c590349048b0d3e0f740977082b04490a8a11a910c1085702a208690726158effd80895fd6f0c0206cd0cb506c3078a0f110d7e0b160376,0137111404820ca40b7810fc025503790eed082df7eb0b4f083212f10a500573011cf8e3045214e210a206610ced0e08fa70fafe0a220d0105a302ff15090dae,0e480b01f99010280c820ac204e709f209e109b407540b1a115d0ced0f3106600cbb15d308820cdbfcc0058310810b1cfbb90e70064908850f3a12350d840ecd,0f4b0a4f0cf10f040ccf0a970bae117b12b9f71b0b7006c0ff8007141448074d0df11250098d01c5fc1503760240154f0b310a170c180dc9fc880a5a0c8302f4,0a2d057a0e88085b08a70e6508cc06e404ab0de3fc4c17d106bd06400adb0c1d05b40a0a07f6070f06f30b3c0eb7093102a3008e082d0b9007ca09040c2204aa,0ad808280b7b08b605f916460f290f0601d610ad0a720cfaff9b12ab08b40e0803340b8006920a8a10c605010bf804df0a15113b113207d30c0effe808a70a4e,07fd055c10a810f207cb18c70fe310820e7b05a6fd03051ff3ddfbdf03231908033a0f18158c12420b0d0e540b7306500b6607e60e2003300f5309d50fb20b46,fa760c3903c8028813080a240f6011cb0b82060c127b0788122612d70d9b08580b0f0e71fcb20cbb12c80b1a0f0fff0010b50c2b0e1d070a0055043a0c2e12c0,0d17fc1209ea139d0d2d0e690df21679fe0a06f00e840d5c0c8d075806800bff094dff0a0fff05d5067a0a3e03d60fd9086210100f690958ff0c0c8010b90419,0afbffa907d70e1f0fda093f10691161082e0e9e0ac80ce703d5131c0b4c063e0f0a11abfce313ec0c8a08390c661167061910a207eb0b0301d108a70c6b0396,01a60b260b4001c70a4f0c4602fc05b7f96b0ab90121ff5e0e04071002ef07510be515c913970ede0a3e0942154805381365017212540ffb020b075b0ecc0766,0d8c0e760cd20c2106ab09ab0f5b0a1d07e40f2000c410cb0ac1127d0ae405a307990af20d2efef2fdd011730f2204da0cd6117f054d095b056b11e305f6117d,f90d0d53ef2e05290da1fc15057505b50c70f778041502ddfada0ed201030fef0270106affe4122efa60f05ef9c705ed03a30b01004cecfb14ab0ad5f14e036f,f5da08dc101df3eb022c0cd4f7b406f6f2aeffc70251f19ffa4412b4fedd0597046804b4f1420e6109cefc0b09b6038bfec3f2030b82025d04e30663100e0b40,ebd20324fd5f15990d73047001f2101dfdca12ac1337fae8f2f40bc10a75f3f105c1ebfd0120066117d7fc800224fd2ff08ff20503270c2c08ba1655f81011f4,f3f70c8cfcf5fcf0080f02a9071609360a380e8507b6f931ff5dfadcf49aedc504a8eaa50b1bf404f73a0525043404a708f1082709650405fe2d07a409e213a5,0a69f71a1124f5a9f26b028e03ee0c910bb703c005ff1057fea0fd170353f698f4d103e709e2f8b514da0b6c0962102f067a0a49ff29ff58090311c9fdf705df,e7dae76d0b500167f7bf0347f4f90641fc65fba1fc8ef929f6f3056208da0ecc04f701710924f25af7080419fa470084fb250ec30c20f391fc050a6d13d2ffe8,121006200af814d4fe6c06a5fc53f5e20385f2d115d4ff14fc75f0e6faa601cdfda60a7206afff8205a7fc1509d908160da813e20f320ab1ffdafe92ff0cf028,0606036f02c0e8af08000b1cf805f9970b3d0b73ed2b0fe5fb4a02bbf721026cff4cfaa906f01168125f06a30fd0fda1f5f4fc7cfc6604bc0b3ced29f6020835,fd8a140714e5061afa24fff3029b090501620100ffe301121072f6ff00df0850001109eb0855fa0407b4062807800a52f95102cef8c605e5eb0ff995fb28045e,e61dfc79051906640cce0354006d0b7cf7e2167d0c9a069e096400f80e7813cafa2efd2f07c2067a0c3718fc01f8024af857f37115c90031f7430cb701eef5a2,022f08ab1758139a075c157d0e3f04dc0e4ffe58031a0fa70cd511e2010f05a00a4506bf0dd40b3414cd0b13122603f409caf40900c2059f0da5f34b084512ed,13fafe7aff780323fa80f5bc0673014507bbfa99ff290eacea150644fc34008cf9fffd7013c304480e9f03d00d110b52ffc90bbffffc080f0a4af584fd79fc8c,f7cc090bfec8086c08870e23038ffb5ee8e4fcbd0b220b9305330500f470fc25f865f83b0b19fe890b27f263065b15c3fc2ceef7011a020e0656ea930ba2044d,032bf700ed3c10cf0255055c0007028508d2fb34fea8ffba033811a20bb00c0e00ba015d0ea801790502ff89038dfbdb036307fdf61e0051f12308801669fc7e,fce107e91056fd1610a6074e001306d0056af8a5004006c90d8908a7fecdf5dd09c8fa0802f1f2da073b0088ff11eb831237fc59fd2c017cf345fe4b0406f666,0a56fb86ffc80b4200a90dcdf7810e2901e7fb3a0a23088206581bfa10ecf2cdfce901bb0f62fca9fb44138efe4909dc04ef04cdfc590310f94b0399156b0905,03a1fb830d0006f1f45d0893fe56f4ee023fff81055c0193fd4c08c5f99913040149f692fe95028c0b9f133603fafffaf906fde90210070af7d3ffb1f939090d,026c0666fb670b06ffa3f746065cf9cbf8c8f9ad09c20099faaf01ca0fc3ff2407060c3dfde8feec0120efaa017df6c10f17f34b06760170035207490cd0ff94,f38df4bb02bbfc4e054e0884e9fc0e10027e0e7c020cf4a001f404a910a404300013fbb6046400c6fc640270ffee03cfefc504760654fceef8eef5b8073e0a39,00e6fcbbfec6072b025a0455fa6f0914ff4a03b0f3560ae404fc02c0023bf693fb9104ee0ba51147f6ab00cb05c7e630057903590a590162fb8e00fc00830c35,118008df017f13c90a5bff88faf40481fc17039504a3feccf336128a0297fa8c0147ffb90b8401c705d8fe6c0d9c0496fdc3fe53fafc07b703de06fa0a390b29,0084f8d3fda40bddeed3f5950484003d01370a7d0cda02c905dbfc4704e8ffae03e6e86f0e7b051800820a34f6360465026106160294173204f708acfb5f08ca,0212fe28014c03f203a2ee1dfaf705d2098ef8300001fc880c74f8f90272f92504860696054b041bfb200481042aff9cf3e2039e005cfadf026300f3f2b50753,f9f1f65907f7f9d7fdcf0290fe600214fe4bf25a0d6a0e06facf0ee1f809fc12fb03026105e107f408e0f714ff3fff7c06d706620625fca3021b05e00b5614d3,02b00637feca005b07a40559fe920731013402aefed007ea035e065cfed3021406e90472015c03bdff8c04530125011904ef03a601e8ff34034afe5cff000442,05e0fd6c0479023e012302c900cf033703c90333ff5d00c803380317ffc3fc3dfebc03a90130004bff58008e02220035035002c804d4ff7a0241fc51fd850039,038e00f202e400b00416fc4701eefefa046ffe92028bfe520577032b02e0ff30fdd8ffd0047700d8fbc1053ffedefccb03c1039e00be035300edfd2f00ea00e6,04cefc0401bdff7b0052057e000c03ac0305fd8500f1fe9b01adff3e011e01aafe1c0536047afe00fdbf027d056a0314fe4dfe66023f04880144fb9effd2ff2a,00d503b0038c05a6038efe72019400e8ff1e022f05b1ff65ffa50177ff35ff69058d01520263ff4bfe1402ccfe0d00b2ff1700a5002bffe4029efcbe012503f4,005b06be02d2feb200d0023302e305c2063bff2e0292fe7403880264032bfee1ffc5023302d5009bfff3fdb6fd410438021d011102e3013001b8051ffed60541,06bc001e0766041a008e0585fbc703fb01a707b5fe7105cbff42026802ad03a10312ffdc0182fe2300e101f205a4fd5d03b201810201009304410480039401ca,febe00a6fdca037002b600b80388051cfdd9025d02d902d00051008802870193031f00ab03d600db012901f401fc03280216014701c5059f0377ffdafef8079b,02e9ff29043c01830276fc33025d0459fc4c025bfed5034c01effa2e015e05af007601ce00d903dd004a039a03b904aa00ae01c70165ff6cfe3e02e801b802c3,00d503870320fed8fae8011d02c8019e04eb019b030600ea01c8077ffe760137ff280366013c03cf02430489fd2d028a03e902cbff96fc1c03420381027e02a4,0284065701f9fc50033aff41047803b6fc8c0411ffef04d504c801cefe4700cd03a2062e008d0361ffcaffadfc0102e9036700640104ff480028fcf9fe52fc75,fd0f00b203e201580657032203a0053b0387048d0356fb620375ffc00297008700b201b2ffc1ff80ff7a03b4ff250177fde6ff2dfff90394ff0703c700630098,fe8b0214ffe302a0fe8d01c60061065d04ee038b032e013ffeffff330057fcd2fefa0271fd74011a00b300e7fd89004f034400bdfc1fff42058904fb02d0fb66,020003cb0066ffda03d1fbed0780fcfd006c030702e90405042000540474005ffdedfe06085a02630152019903c4061a017c04ad01aa01990863011800f00629,03d00353067a025700110227044effd8fa1504460052ffa0ff960341ff7b01ec01aefbbc00ce026d0199ff25027003180087017900dc021bff73fedb030efbf1,01340407029d01f4011c00db06000507fc9bfff601d700f90261011ffd6903cb025301fe02b5fe9d019c05220376006c03cf06830298ffce0505042703db0401,00000000000000000000000000000073ffe3fff500a30007000600b20009ffff0000000000000000000000000000fecbffc1ffedfef9ffcc0001fed9ffb90006,00000000000000000000000000000000000000000000000000000000000000000000000000000000000000000000000000000000000000000000000000000000,00000000000000000000000000000000000000000000000000000000000000000000000000000000000000000000000000000000000000000000000000000000,00000000000000000000000000000000000000000000000000000000000000000000000000000000000000000000000000000000000000000000000000000000,00000000000000000000000000000000000000000000000000000000000000000000000000000000000000000000000000000000000000000000000000000000,00000000000000000000000000000000000000000000000000000000000000000000000000000000000000000000000000000000000000000000000000000000,00000000000000000000000000000000000000000000000000000000000000000000000000000000000000000000000000000000000000000000000000000000,00000000000000000000000000000000000000000000000000000000000000000000000000000000000000000000000000000000000000000000000000000000,fb57feeef62dfe7bf94cf5c002c001ac0c09ffc8fcf4040aff45fd03f84cfb070976f3b805a1f03cf8ceff2e033009a4fbdefdb6fad10234fdc6f6e7051afff3,fcd0f130f7b50574fe2d095d06c0f967ff31030ef90a01f6fc5b0847024307ef0e4408c2fe7a0255003efe3afa750672f56dfbdaf9dff7dcfa5cf85e031d0c54,0ccd052effd30358fd8a0d13f3070e190a85f471015a05de0299e7d4068a0176063705ab07880097fe770c1e07590806fc4a00de0004f30efa40073e0e82f80d,00be052e0b3dfb46f979fe4a0287000ef4ebf83807bd014e032808870737054e01eaf656fd67fcfb01b8f6bffd69ff9e0494fe8402b7041a04ad0565031efbea,085efb14fffe0f28076507ab0bfc00530bc009580948085e04fc040b00b60208081b0ac60782ff1607d8fdb7f8090a8b002a0039fc5e07ae06bdfd6dfe6f0149,092c048e04e403c0094f0119fa0006cdfed0faf6058afa10046003b700e20731fb2309c700530b7b0c3603a90277072a02550197027a03b8f418f91afcc50a75,05d70317fc7a05b20478011307dd03f3066a041f021b076afd67029cfa3308210609013e034408a1fe730fd4048a01b6065d070f00c102a408730f9aff0cfc43,0034f9ca07e8029efad30588049e08be029aff6bf7b1fc57fa8803e806cc0697f962fa6dfd61f5a305fc000704570b47fe35fbb403fa07a7fceefd20076009e0,042d0588fc8d0861048f0b17005005b40bc8ff51fe75fee406b505b800630779001e07e8039f01d4040300d2010800e1fcaf02a90992f59c03f0090108100567,0450ff510b8dfc5f020405c804b8fcb001910085fcf40e22022908c3fe1800b20666fdfbff16fb2e0fb402b00e730b110369015af5da00e5fe1bfd94fcdd0b05,05e9fe2ff465034002ec018006170732068bfdbf017efe41fa69032ffc480a090a08f7cc04590ea9097701e0fecefbbafc9e086b03d10598ff390009067b065e,05b902d1003fffcd023006ca083914da0756093503b60921f6fe07730de603110e26fe25001e077d068104670070fd0ffff71338fd28051903f301e003bd0bf7,000000000000000000000000000000c0ff9cffe500cc003d000500ddffeffff70000000000000000000000000000fe9bffc90003ff0cffb2fff2fedb005efff0,00000000000000000000000000000000000000000000000000000000000000000000000000000000000000000000000000000000000000000000000000000000,00000000000000000000000000000000000000000000000000000000000000000000000000000000000000000000000000000000000000000000000000000000,00000000000000000000000000000000000000000000000000000000000000000000000000000000000000000000000000000000000000000000000000000000,00000000000000000000000000000000000000000000000000000000000000000000000000000000000000000000000000000000000000000000000000000000,00000000000000000000000000000000000000000000000000000000000000000000000000000000000000000000000000000000000000000000000000000000,00000000000000000000000000000000000000000000000000000000000000000000000000000000000000000000000000000000000000000000000000000000,00000000000000000000000000000000000000000000000000000000000000000000000000000000000000000000000000000000000000000000000000000000,